0406040406fb04fc04040505
050404060405fc0505040404
fcfb04fc05fcfc0504040405
0405fcfc06fcfb04fcfcfc0a
05080406fcfcfcfcfcfcfcfc
040404fbfc070704fc05fb04
05fc060604fcfb050afc0408
fb04fb050404050404040405
fc050405fc04050407080507
fc0cfc0807fb04090507fc04
0407fc06080805fc04fcfa05
06fbfc07fcfb0904fb060604
070704fbfc04070905040505
070407fafc0404050604050a
fc040405040504fc080605fb
08050704060406fc04fc0406
0604fcfcfc04050507fc0505
fbfc04f60404fbfb0505f904
fcfc04fbfaf9050504fc04fc
fa04040504faf9040405fb04
fc04fc0404fcfcfc040405fc
06fbf6fa06fbfcfcfcfb0604
04fc05fa05fcfcfbfcfcfcfc
fcfcfbfafcfbfbfb04f9f9fc
06fb10fcfc05fb08fcfcfafc
fb05fcfcfcfc04070404fbf6
f7fb05fc04040504fbfbf906
fb05fbfcfcf904fcfbfc04fb
0408fbfc05fc06fbfcfbfcfc
0606fcfa06fcfbfa05fcf8fc
0406fbfbfcfafcfb05fcfcfc
fc04fc06fcfcfafb05fbfc04
04050406fcfb04fb0406fafa
faf9fbfcfafcfafc0607fcfc
fcfb0404fbfcfaf9fbf9fc05
fc0405fcfb0404fbfafc0404
fbfc04fafc0506fb0504f809
fbfbfcfc04040404fc04fcfb
04fcfbfb04fc04fafcfbfcfc
040404fcfc0404f909fb04fb
050404040405040405040504
0404fc050404040404fc0504
04040404fc04fcfc06fcfcfc
0405050404fb06fc040405fc
fb0605fa05040404fb050404
04fcfc07070605fc05070405
0605fb0407060504fc050604
fcfc040805fc050604fafcfb
0b06fbfcfb0504fc0404fcfc
fbfc040bfc050404fa06fa04
0afaf904fb050406fc08fb05
04050405fafa04fb0404fcfc
fb04fc0504fbfcfbfcfc0605
07fcfc0504fb04fcfc04fc04
06fc0409fcfcfb0806fbfb04
05fc070408070404050505fc
fb04fc04fcfc04fc060505fc
04fc0404fcfafc0404fbfbfc
fa08fb050cfc09fcfafb05fa
09fcfc05fb0df9fbfcfb04fc
fcfb07fbfc0608fa080505fb
0505fc0d06fb04fb0504fcfb
0707040804fc08fcfbfbfc04
10fc050406fcfb05fb07fcf9
080afa040704fcfcfbfcfb04
05f90506fc040804fcfcfc05
fc0efc07040e040406fc0510
fcfcfcfcfcfcfb050a070704
fbfafc050504fcfcfcfbfcfc
05fc04fb08f6fafc07fbfcfb
fcfbfafcf9fcf8fc070607fc
fb04fc0404fc05fc04040a04
fcfb05fb04fc0404fc04fcfb
fcf9fcfc040404fcfbfb04fc
fc04f904f9fb050404fbfb05
06fc05070404fbfbfc040504
05fc0404fcfb040404fcfcfb
fc040504fb0804050504fcfc
fc060404040505040404fc05
050404fb05fc05fafa0409fc
f9fa0404040508fc04050504
0404fc05fcfc040405fc0404
fcfcfc04fb04fcfc040404fc
fc04fc0404fc04fc04040404
05fb0406050404fc04fcfc04
fcfb0405040404fc05fa0404
fbfcfb04f9fc04fb0404fcfb
0404fc04fc04fcfbfc04fc04
fc04fafbfcfcfcfcfbfafcfc
fcfbfcfcfcfcfcfcfb0504fc
07fc040405fc0605fcfcfbfb
fb05040405fc050404fa0404
fb05fc040406fc08050504fc
f90604fa0507fbfc0404fbfc
05fc07fcfc060505fc0707fc
fc05fc070404fbfb06fbfc04
0404fcfafc04fcf70a06f908
0405040404fbfc0404040404
fcfcfafafcfc0406fc05fb04
05050404fcfa04050504fc06
fbfbfafb080504fbfa040406
fcfb04fafbfcfcfcfbfc06fb
fbfb05fcfbf9fb040608f905
05fbfa0806f9fcfb06fbfb05
04fa0407060509f9fcfc08fc
fb07fafcfbfcfa0bfbfbf904
fbfcfa0b06fc04fbfb05fcfb
f9fbfbf607fb04fa0704fb06
04fb05fb05fc04f6fbf90804
0504fafc0404fafc06fcf609
06fbfc04fbfafb040406fa05
fa05f8fcfbfcf806fcfbfcfb
fcfbfc05fcfc05fc04fb0405
fcfcfc07fbfa04fafafafbfb
fc0505fafc08fb05fcfcfc04
09fc05f90404fb0407fc0609
f806fcf90a05fcfc04fcfcfc
fc04fc05f9fb05f8f8fcfc04
fcfcfc04fcfc05fcfbfcfc05
fbfc04fcfc04fcfcfafbfafb
fa0505fb05fc0404fcfcfb04
04fb04fb0504fc0504040504
fcfcfb06fc0404fcfc04fcfc
fb0404fc04fbfc07fc0404fc
fc0504fc0404fcfc0404fafc
0404fcfcfc0504060405fafb
fc0404fb04040404fc04fbfc
fcfb04fcfc0504050407fc04
0405fc060705040604fc0404
0604fcfa09f904f9fafcfafc
040b080407fb05fbfb04fb07
fcfc0504050407fa07040404
f8fcf9fc0404fcfb050405f7
080909fc0404fc10fc06060b
07fb05fc0506fbfaf9fc0607
04040904fcfc040504fc0807
fbfc050bfc05fcf70505fafb
fcfcf904fc04f804fc05f9fc
05fcfc0508040704fbfc040b
fb0404fc05fa0805fb050506
0407fcfbfc0afc07fb06fa05
04f8fa06fa05fcfcfcfc05fb
fcfb04fc060408fcfafc0706
f9fbfc04fc06fc0408fcfc04
0805fb0404fa0504fcfbfbfb
fcfcfcfc0504fa07f8070607
0505fa0804f9fc12fb04fbfb
0504f8f80406150506f5fb04
0707fb040c04f806fc06fb0c
fc0704fc04fb04f8fbfc08fc
f704faf7faf2f905fa060bfb
f9fc05fcfb05f9fcfb07fafa
f7f80806fbfc05f7040704fa
fa09fbfb0604f9fbfaf7fb06
fc0409fa05fafc0604040805
fc04fcfcf8fb0afc06fbf905
fb040505fc04fbfafcfcfc04
fa05fb05fcfbfbfcfc06fafb
fbfbfb040504fc0504fcfaf9
06fcfb040405fc04fcf5fcfb
05fcfafcfbfa05fcf8fcfcfc
fcfb04f9faf4f806fcfbfbfc
fafafbf9fbfafa05fcf504fb
fafaf9fb05f9fcf8fcfb0505
fcfafc0404f9fcfafbf508fa
fcfa04fafb0407fcfcfb05fc
0504fc040506fbfcfbfcfc05
fb040405fbfbfcfbf90404fb
fafcf805fcfcfb04fb04fcfc
0404fbfc05fc0404060405fc
0405fc04060404fc04040404
050404050405fc0404fc0504
fb0604fbfc080404fa05fcfc
fcfbfbfb05fc05fbfa080505
fc06fc050404fc0404fcfc05
fafb04fb0406fc07fc040409
040605fc05fcfc060504fb05
fc04040405fb04fcfc0404fc
f90504fc0604fbfcfafcfc04
040505fb0504fcfc070404fc
0504fc050404fb04fc040504
fb0905fcfbfb04fcf9070504
0a0405fc0606fcfafc04fcfc
fbf904040404fcfa04040404
fc0806fc0404fcfcfa040906
0404fc040505050407f80404
05fc040405fc040504fc05fc
fcfc060606fc0504fb04fbfb
06f8fb0504fbfc0604050604
0604f7fcfb05fc05fbfcfb04
fcfc040504fbfcfa0604fcfa
fbfbfc04fbf9fcfcfcfc04fb
04040506040406fbfb05fb05
050405fb050404fa04040604
04fbfcfb08fcfc0405050507
fcfcfbfcfbfafcfc05fafa0b
fcfc04fbfaf5fc05fb0405fc
fc04fcfcfbfa0505fcf905fc
04fc050805fbfcfc0505fa08
fcfc0405f9fcfc04fc05fcfc
0407fcfb0506050504fcfcfc
0506fc04f904fb0404fc0506
0406fc040404040606060504
fcf9fb040406fafbfcfbfafc
04fbfbfb0404f60406fcfcfc
fc05fcfb0904fc0404fcfcfc
fcfcfa040404fbfa04fcfc06
040405040404fc050505fc04
04fc0504fcfcfc04fcfc0405
04fafcfcfbfcfc040404fb05
fcfcfbfc04fc04fbfc0604fc
04fcfcfb040505fc04fcfcfc
fcfc06fcfc04050405040404
fc0505fc04fafcf7fc050506
0504fa0404fcfcfc04040404
050405fbfc04040406fcfcfc
fc05fcfc070404fcfa0404fc
fcfaf8fc040504040606fcfc
04fbfa05fc04fcfb04080405
fafb040404040404fc05fb04
fcfc050404fafcfc05040404
fcfcfa050404fcfcfcfcfcfc
05fb0504fcfbfcfc04040404
050504fcfcfc0404fb04fcfb
05fc040404fcfcfcfcfcfcfc
fcfc040504faf9fcfbf60506
0504fbfc04fb04fbfcfcfcfc
f9fafaf50606fb0504fcfc04
fc0404fcfbfcfcfcfcfc06fa
f9fbfbf6060505fcfc040404
fcfbfbfbf7fb040704fcfcfb
fcfaf6fc04fa05040804fc04
fbf7fb05070405fc04fbfa04
050406fb05040405fc04fcfc
04fcfb040405fc0404040505
fcfc060505fb04fc05040504
04fc06040605fc04050404fc
04fcfc04fc04040405fc04fc
fc04fcfcfc04fc05fcfcfc04
f90a06fc0505040504040404
0405fbfcfcfcfc05050505fb
fafcf904f9fcf7fc04040404
fb04f904fb060404fcfcfc04
f8fc05fbfafc0404fc04fbfc
0404fbfcfcfb04070705fafc
06050afc04fb08fbfcfbfbfa
fcfc0604fbfbfcfcfcfcfcfc
fcfb05fcfc040504fbf90507
fc0604fbfcfbfcfa050408fa
fcfcfcf8fb05fc05f905f9f5
fcfcf906fafc0409fc07fa04
06fc0404faf8fc04fcfc04fb
05fbfcfafa0406fb08fc05fb
04fafbfbfcfbfbfbfbf8fc04
fb04fc050a050406fb04fa0a
fcfc06fcfc05fb04fbfb04fb
f906fafc05fc06f9f9fcfbfb
041111fc0b0608fcfbfc07fc
fc05fc0709fcfb06faf5fc04
0405fbfc0b06fc05fb04fcfa
0405f9fbfcfc04f90509fcfb
fb04fb0504fcfbfa09fbfcfa
04fb0405fb04040507fc09fc
04040507060afc040407fc04
0508090507fa050504fb0904
06fa070605fc04fcfc040605
04f90404050805090604fcfc
fc09f90604fb060404fc0bfa
fbfb04040405fc04040404fc
05060404fb04fc040406fc04
04040606fcfc0508fb07fa04
04040404fc040a0405fc0404
04fcfc040bfc05fc05fc0404
060504040404fc0404040404
fbfc05040404fc0404040406
05fc04fc06fbfcfcfa04fb08
06f9060404fc06fc04fcfcfb
f9fcfcfc0405fc0404040404
fbfc05fafc07fb04fcfbfbfc
fbfc040504fa04fc0706fcfc
04fc0404fcfcfb05fbfcfcfb
050404fcfc06fcfcfc050405
0804fa05fcfb04fcfb04fbfc
04fcf908fb0408fc050404fb
09fc0707fcfc050407fc04fc
09fcfc050504f90606fcfc05
040405040507fbfcfcf80504
fcfb04fa04fcfbfcfc05050a
fc0405fb040bfa07040504fb
fafcfbfc06fc0407fcfb07fb
0bfb05fc08f9080405080608
fcfbfafcf8fcf9fafbfcfc04
05fbfbfafc040407fc08fbfc
fb0505fb0c0606fbfb090bfc
fbfcfcfcfcfcfcfbfb07fcfb
fa06fbfaf90afc0507fc0c04
f9fc04040507f9fc0509fc06
04fc04050404fb050504fc05
04fc040405040405fa050404
05fcfb0404fc04fbfafbfcfc
0705060605fafcfcfcfcfcfc
fcfcfcfb0406fbfcfbfc0404
fcfb0605fcfcfbfb06fcfcf9
fcfc04fcfbfcfc05fc040506
fb09fb0afa040405fbfbfcfc
fc0404040504fc05fc040606
fa04fc0504040404fc0404fc
04fcfc05fc040504fcfcfcfc
fbf908fbfc0504fcfcfb0404
fafafcfa04fafc08fc04fcfc
08fbfc06080404fcfcfcfafa
f906f8fb05fafc04fcfafcfa
04fc0705fbfcfcfbfbfafcfc
fcfb0404fc05fc07fc040504
04fbfafcfc04fbfa060405fc
fcfc05fcfb05fcfc05fb0404
05040504fc04fc040404fbfc
08fbfc0705fc06fc0604fbfc
0405fc06fafcfcfc04fbfb04
fcfcfa040a04f812fcfbfcfc
fbfb07f90a04f704fc0405fc
0409f9fcfb04fa07fbfbfcfc
0904090bfafcfbfcf808fbfc
fcfa06f9fc0505fafafafc07
f9f7f70a0714f5fbfbf70dfa
05f8fcfcfbfafcf9fbfb0408
0404fcfafc05050e040d05fc
fcfc05fa04f9040607f808fc
0507fcfcfcfcfbf9fbfc0705
0af9fb06fbfbfbfb05fcfc04
fb0407f9fcfcfc05fcfafb05
04040405fc06fcfb0504fcfc
040506fafcfc0404fc04fcfc
fc05050404050404fc0405fb
070605fc05fafcfc08fc0404
0404fcfc05050407fb040608
fcfcfc04fc0405fcfc040505
040405040504fbfcfc040404
fc04040507fcfc04fc04fbfc
04fc050504fb040404050504
fc040405fcfcfcfc0405fb05
fc05fc0408fc0404fb040404
0604fc0406050505fcfc06fc
04060405fb06040608fcfbfc
080506040505fcfcfcfc0504
fb05fa05fc040704040505fc
f8050405070404040405fc06
05fc05fb04fcfb04fbfbfcfc
fc05fa05fcfcfbfb05040505
fcf7fc07fb05040504fbfcfc
fb06fa06fafc06fbfafcfa06
05fb05fcfafc04fcfbfbfc04
09fcfc050505fcfbfb04fcfa
fcfafbfcfc05fcf804fc0405
050604090805fcfc07fcfcfc
f80504fb07faf9fb070504fa
06fbfcfbfcfc0404fcfc05fc
fcfb04050406fc04fc05fcfc
06fcfc060404040407fbfcfa
fc04fcfcfbfbfc05fbfafafc
fcfc0405fcfc0504fcfb0504
fafbf8fb05fcfc060405fc04
fcfb05fcfc04f8fc0604fbfb
fb04fb0405fa04fcfcfc04fb
0405fcfcfb0afc07fcfcfcfc
fcfc0405fbfcfc05fcfb0404
fcfcfb07fafc0505fcfcfcfb
0504fc04040508fcfcfbfa05
fb04fcfcfc0504fb04fc04fc
04fb04fa04050404fc040404
040404fc04fcfa0405fb0404
04fc04fbfcfcfcfbfbfcfc05
04fcfcfc0405fc04fbfb04fc
fc04fc05fc06fcf8040809fc
04fb0405fb05040704fc0606
0405fcfcfcfbfb050405fcfc
0506fb05fcfcfcfc04fcfc04
fcfb05fcfc05fc060505fc05
05fc050404fc05fcfc0404fc
fc070405fafcfcfc0505fcfc
06fbfc0404fcfc0605fbfcfa
fbfcfbfbfc0405fcfc04fbfc
04070407fcfcf8fbfcfc04fb
fcfafcfcfbfcfb04fb04fcfc
fc050704fafc0604fb040405
fcfafc0404fc070506fc0504
0806fc040405f8fb05fbfb04
fc040cfbf9f909f8fcfbfafb
07fb090cfcfc05fcfc06fcfc
fcfa0404fcf9fc0404050505
040504fc04fbf6fc0404f804
fb040405f9fcfcfb05fc0909
06fcfc0404fbfc08fcfc04fb
f8fcfb04fbfb040404fc0506
fbfc05fc0705fc06fb050504
fc04fcfc0505fcfcfbfc05fc
04fa04fc06fa07fcfcfc0404
fbfb040408fcfcfcfc0404fb
fafc05050604fb0704040504
0406fb0604fa06060504fc05
fb0404fbfcfc040604fc04fc
04050405fb0504fb06fcfafc
fafbfc0404fc040506fcf9fb
fcfcfc09fcf8fcfcfcfc05f7
fc0404050604fb0e04fcfcf9
fcfb0404fc09fcf8fbfb0404
05fc0a0405fc0404f80405f9
f804fc04fc0607f80404fc08
fcfc040505fbfcfbfc04fc04
fc0405fc07fc05fc04050905
fc04040504fbfcfc040505fc
0506fc07040405f9fafc0404
fcfbfb04fc06fb080404fb09
fb08fcf90509fc06fc040405
fcfcfbfa0806040406fbfc07
0504fa0404fbfa05fcfbf8f9
0505f8fafc07fc040806fcfb
fc0605fbfafcfc0706fcfa05
fbfcfcfc050804fb04fbf9fc
05040406f7070404040406fb
050405fcfc07fcfcfa04fcfc
05f905fb05fcfb04fcfcfc08
fc0cfbfcf9fbfcfafb04fb06
0e04fafcfcfbfc09fcfc0c0b
fcfc05fc04fb04fbfa04fafb
04fbfa0507fcfafafcfcfc05
fafc04fcfb0509fcfcfcfcfc
04fcfcf208f9fc09f70cfc0e
fcfcf9fb06f8050409f909fc
fafbf9fcfb050afcfbfc0607
f909fc08f80513f9fafcfcfc
fc07f8050bf9f60404fcf80b
fa0efcfa06f9050dfa0608fc
fafaf7fb0604f5f9f9040c04
fa09fcfafa13fcfafcfcfb09
fc0604fc0608fcf9fbfafbfc
fc04fb0605f9041104fbfb07
fb050afcfcfc05fcfb07fbfc
060ffbf904fcf9040efbfbf9
fc06060504fcfcf8fb070606
0604fcfc04fcfc05fb0404fc
fc0705fc0404fcfcfbfc0704
04fcfc040405fc0504040406
fafbf9fcfbfcfcfc040404fc
06090504fa04040704040904
fc06fb0410fbfc0706fc0604
04fbfb0404fbfbfcfc04fcfc
05050405040704fb040505fa
0408fcfafc0708080408fcfb
0507fc05fcfc06fc06060ffa
070806fb0506fc06fa04fb05
0504fc04040404fc04050406
0405fbfa0404040404050405
07040404fc0604fc040404fc
0506fb0404fc0604fc040506
050504050404fc04060404fc
04fc04fc05fb04fc0405fc04
0704fc06090607f9fb040404
05040405fcfc04fc05fcfbfa
0508050404fafb050508fcfa
fb0405fcfc04fbfbfcfc0504
04070508fcfbfc06fc070405
0405fcfcfcfb04fb050404fc
fcfb04040504fc04fb040408
0504040504040406fcfcfcfc
06050407fcfc050404fb0406
fb05fc0804fc0504fb0504fb
0406fcfb0507fc04fc0404fb
0404fcfcfcfcfbfcfc04fbfa
040504fcfcfc0406fc04fc06
fcfc05fcfcfcfc0405fcfcfc
040705fcfc090704fc07fc07
fc06fafbfbfc0504fcfcfcfb
fcfb0606fc08fcfc10fbfa04
04fbfb07fafc0607fc04fc0a
fafb04fc04fcfb04fb1406fc
fc04040505fc0704fafc04fb
fb06fb04f9040609fcfa0afa
0905fcfb09fcfbfbfcfc0404
fc04fbfc0a07fcfcfcfcfb07
fbfcfc040504fcfa04fbfb04
0afc0408fb0505fcfc0407f9
04040406fcfcfcfc06fcfc07
0d04fbfc04fc050405fcfcfb
0bfc06fc050bfcfc0704fc04
0504fb05fc07fbfc09fafcfa
040904fbfbfafcfbfb0406fc
040606fc06fc0804fcfa0409
fc0506fb07fc040b04fa04fa
fbfcfc070406fbfc07fb04fc
040607fbfafb04fbfcfcfb06
fcfbfc04fbfc06fcfb0405fc
fc04040404fbfa0505fc0507
05fc04fb04fa04050404fa04
0408fc0406fc04fa04fbfcfb
050405fcf9fcfc04050405fc
fc0804fc0604fb0afbfc0404
040405fc05fc0904fafafc06
fc05fc0906060404fc0404fc
06fcfcfbfc07fc0705050404
fc0f080405fb06fcfc050704
06fc040604fcfafc05040504
fb04fc04fc05fc0a04fc05fb
060505fc0407fcfcfcfafbfc
fc05f9fc050404040708fbfb
04050404fc04fc05fbfc04fb
0b0a04060604fc04fcfa05fb
07fb0a04fb06fcfcfa040604
040607090605040505fa0404
07fafcfbfb07fbf90407fa04
08fc0508fcfc0407fcfb07fc
fb05fcfa04060606040c04fc
fc05fa0404fc05fc0406fcfb
fc04fcfb04fafafcfb040404
0608fc06fafb0604fa0504fb
04fcfcfc04fcfbfcfc0604fc
040404fcfbfcfcfafa04fc04
050504fa07fbf9fb05fcfcfc
0505f9fcfcfb07fafc0704fb
fb0506fbfcfb0405fc0405fb
fa05fc06fcfbfa0b070c06fb
0a050605fbfafcf805fc0405
fc0504fbfcfcfcfc05fc0704
fcfb04040504fbfc05fb07fc
fc04fa04fcfcfbfc05fc0404
fc04fb0504fb04fcfc0407fc
0404fb04fc040404fb05fbfb
0406fb06fcfc04f60606f8fc
fcfcfc04fcfcfc0405fbf9fa
fafb05fcfc04fb05fcfc0505
fc040404fcfa0504f9fcfc06
fc0404fcfcfcfc04fbfc05fc
fbfc0404fc04fc04fc04fcfc
040404fc04fcfafcf9fc0604
04fcfcfb0704fbfafc0605fc
04fb05fbfcf905fcfcfbfcfb
040604f9fb0404f7fcfbfbfb
0804fc04060405fc05fbfcfc
fc05f8fc04fb0dfbfa050a05
fcf8fafc04fb04fbfcfb06f5
0404fbfc04fc08fc0405fc04
fafcfa04fc060405fc04fcfc
fc04fb05fcfcfc04fb04f704
04040405fc0405fcfafcfc04
06fc05fc070504fc040604fc
0504050504040404fcfc0407
04fbfc0504fafc06fcfbfc04
fc0404fc050607fb07050404
0404080c0504040404040408
040404040404fc060c080507
0e06040405fc0505fc040606
08fc0405050605fcfc0909fa
0407fc0d04fcfcf9fc040504
fc0411fc06fb0a050406060a
fc050bfcf904060405fc05fb
fcfafcfb05fc07fcfc06fbfc
0508fcf9fcfcfc0505fb0506
0d050706050608050905fcfc
060704050807fafc04fcfafc
fb04fcfa0507fcfc04fc05fb
0504fcfc0506fcfbfcfcfb04
0505fc0704150707fc050806
09fb040a05fcfb05fc06fc0d
fcfb04fc050805fcfb040408
fc06040b04fb05fc06050609
040805fb0606110405fc05fc
f9050cfc0f06fc040b0708fb
0504fbfcfc0afcfb06fbfc05
050a05060604fbfbfb04fc06
040807fbfc06fbfbfc040bfa
0604040508040504fcfafc06
040504fcfc0404fcfafcfc04
fbfcfb04fc04fcfc0707fcfb
fbfc06fc04fcfcfc04fcfc04
fc05fcfbfc04fcfc06fc0506
fcfcf8fbfbfcfc04fcfb05fc
fb04fcfbfc04fbfc06fc0505
fcfc0404fcf9fc0604fcfcfc
05fc04fb0505fc060404fcfc
0404fb06fc0405fc07040404
04fcfc0404040506040404fc
08040404fc07fa08040a0504
0407fc0407f70a06070506fc
0504fcfb0404fc0404040704
04f9fc04fc0404fb05fbfb06
f9fc04fbfc050404fcfcfc05
fbfc06fcfbfc050705fc0404
0605fc0604fb04fb04fb0604
0704050704fbfc04fcfb04fb
0406f90505f8f9fcfc040406
0404fc0506fcfcfc04fb060b
fc0e090f09fc08fa07fcfcfb
fcfbfafbfb0705fcfa080afa
04f70dfb06fbf5fcfcf7fcfb
f90e080606f8050d06fcfbf9
f8fc0808fafc04fcfc0a04fb
090406040608fc04040707fa
05fcfafa0804f9fafcfc05fc
fbfc0405fcfa060506fb0407
0505fb04fc09fcfcfc0406fc
040504fb05fc06070504fc04
fc050404fcfc04fb050404f9
fc04fb0404050405fbfb05fb
0609fafc0a07fbfbf9fc04fc
fbfcfcfbfcfcfcfc05fcfcfc
fa04fb04fcfb09fb05fafcfc
fb0404fcfcfc0704fc0c08fc
fc0404040406fc0405fcfa05
fcfbfbfbfc0606fb050606fb
fcfcfc04fcfc06fcfbf9fc04
04fbfbfa04fc04fcfc070afb
fcfcfcfb04fcfcfb0504fcfc
05170bfcfcfcfbfaf904fcfc
f9faf8fbfa08fc0bf7fa06fc
fbfafcf8fcf8f9f905fc04fb
fc05fcf80dfa0508f8f8fbf5
05fbf6050806fbfafcfbf8fb
08f7f8fb10fbfbfcfaf91004
050707fb04fcf7fcf9fafc08
fc0405fbfa0a06fcfc06fcfc
05fbfcfcf8fcfbfcfcfcfc05
04fcfb07fa04fcfa0404fc08
05fb04040404fcfc0404fbfc
0504fc04fbfc04fc04050904
fcfbfc06fc070404fc050d06
fc04fc0404fc0407fcfbfbfc
04fb0bfbfbfb0405f90605fc
fc0406fcfc05040704fafcfc
0404040504fc04fcfcfcfb05
0404050404fcfcfc0404fc05
0605fbfc06fc060d04040404
05fb0706fcfafcfbfc05fbfc
fbfc07fcfc0a04fc090404fc
040404fcfc0505040505fb07
fc0406fc0405040705fc0506
06fa0404060804fc0504fcfc
0b060a040405fc0905fb0504
fb0805fc04fb04fc0504fc04
06fb040405fc06fa04fcfc08
0406fa0404040bfcfc0405fb
fc04fc04fc05fc06fcfc07fc
0406fcf9fb0504fbfcfc04fc
fcfb09fcfc04fcfcfc0406fa
07fcfbf906fbfcfc040704fb
0505fbfcfcfbfbfa04fb0605
fcfb09fbfc050804fc0704f7
fcfb040605fc04fbfbfcfc06
04fc0406fb05fbfa04fcfcfb
fb06fb1206fcf8fafb06fcfc
08fb04050409fb08fcfc04fb
0d05fcfa04060405fbfbfa0f
fcfb0413f80cfb0705fcfbf8
fcf7050409fcfb0504fb0a04
0bfc05f5fcfcf80905f7f8fb
fbf6f80608fbf9f9f8fb19fa
fb08f8f9f909f8fcf9fbf8fb
fc1ffafbfcfb18fc0506fb09
0405040dfafafaf7fcfb0506
050706fcfcf8fbf8f7070507
0cf205040e09070d08f9f8fc
fc19fb07fcfcfcf50622f8fb
effc0d06fafcfb0407f9f9fc
fa0d06fbf904fafcfafa08f7
fa0704fbfb04fbfafbfcf6fb
05fc0bfa05fb0408fc0a0a04
0afa05f9040409fcfa04fbfb
f70509040407fbfb0805fbfc
0405fcfcfa04fc05fbf9fc04
fcfcfc05fc06fcfc09fbfc05
05040404fcfc09fc06f708fa
f804fbfc0809fcf8fcfcfb04
f7fafa0506fbfcfcfc040405
fbfb050e04fb1e09fcfc04fc
fcf4fcfafbfc0a060704fcfc
0806fbfb0a0504fa0bfcfc0a
fcfafcfc04faf504fa09fcfc
fc060404fc0cfbfa04fbf907
fb0706fcfcfc05fcfafc04fb
040404fc0504fc0404040404
04fcfb0704050404fcfc0604
05fc0507fa0704fb06fcfc04
0406fbfc0806fc04fafcfa06
fc10fb0a0404fc05fbfbfafa
0406fbfb050405fcfcfbfb05
0c0404fb0f06fb05090704fa
fb05fcfbfcf7070505fafbfc
05040504fc0404050504fcfc
fcfc05fcfc06fb040404fcfc
fc050405f8fc0504080c09fb
0504fc04fc06fcfcfc05fc04
05fb0404050804fc0406fb06
fb0506fc04fbfcfc0904fc04
fc050604060404fcfc040405
fb0406fcfc08fc0605fc0507
fcfcfbfcfc04fc04fcfcfbfc
fcfcfcfcfcfb04fcfc0404fc
fb05fc04fb05fa0405fcfc04
04fbfafafb0afcfcf90506fc
0408fcfc0406fcfc08fcfcfc
fbfbf8fbfbfc05fcfc040507
05040708fcfa06fc060507fc
fc04fa0704fbf7fc07fb04fb
fb04040708fafcf9f405f805
fb040504fc05fbfafcfafb07
fbfc05f8040404fcfcf8fb0a
fbfc040506070404fbfcfcfc
fb04f905050406040409fbf7
04fcfaf7fbfc0605fcfa0c05
04fcfbfb04fc07fc05fc06fb
0508fc0505fafafafbfbfc07
fb04fc06fc040504fbfa04fa
fa050a0505fc04fc05fbfcfb
07040804080604fb06fcfcfc
05fcfcf60504070907060604
050604fcf9040c050604fafc
04080704070406fb0504fc06
06050507fb0406fafc04fcf9
04fbfb080705fb09fb060504
0407050404fbfcfc050bfc05
0404fc05f806fcfc060605fc
07fbfc05fc04fc07070806fc
04fc0504fbfb05fa0505fa0d
0506fb04fcfbfc050506fc04
0407fcfcfbfbfcfc050905fc
040404fcfbfcfcfcfcfcfafc
04fbfc07fbfcfb0405fa0506
04fc050504fbfbfb0b0afbfc
fc05fc04fcfcfc08040405fb
04040604fb05040404040404
0804040606fc05fbfc04fc07
040405fc070404fc0706fcfc
fc0405060408040407fb0508
05fb040407fcfc06040506fc
fcfc0405fcfb06fcfc050504
0404fc0406fcfc0405fcfcfc
04fcfcfc0404fc04fc040404
fcfbfc0404fc040404fc0405
fafafcf9fcfc04fcfcfaf8fa
04fc0604f604fc0609fbfc04
fafb04fcfcfcfcfb0704fcfb
fbfb05fcfcfbf9fcfbf50404
fbfbfbfa04fafc04f804fcfc
fcfafc0504f8faf6fcfafc05
080bfa0404070511fc05fc05
fa06fb050c0a05f9fc0afc04
0b04070406fb07040bfa0905
050c04040bfc0510050404fc
fbfbfcf7fcfc0407fc05fbfc
fbfc06fcfafbf9fbfbfcf9fc
fcfbfcfbf9fcfa04fcfc05f7
fbfcfcfc0708f9fc04fcfb04
fbfc05f9fcfbfc0505f9fcfb
fcfb07fafaf7f006fbfafc04
fcf604fa05fa08faf906fbf9
fc04040704fcf9fcfb050605
fc05f9fcfcfbfbfc05f7fbf9
041c051004fb0404fcfcfbfa
0e060b0404060404fa0514f9
04fc06050a04fbfc04fb0d13
040c0dfc0408fc0ffb070606
04fb05fc04fb04fa05f80a05
f906fbfc0606fafbfafc0519
fafafcf907fbfbf9090dfb05
f9fc04fa04fc07f8fb0406fc
fa05fbfafafcfb050605fcfc
fbfcfc0409fcfbfbf5060606
fafc0405fcfb0b0af7f6fa04
fc06fcfa07fcfb040408fcfc
0b04fb060404fbfaf9fcfbfa
05070704fa0408060404fb13
07fafc0604fa0b0b05040606
04050404050d0408fbfcfb09
fcfc0ffa0404fb04040408fa
fcfc06050704fb0b07040405
0505fc06fcfbfc05fcfb06fc
fc0404fcfbfc07fc07040404
040408fcfc060605fcfafc06
0604fc07fc040704fcfc0405
04040408040504040404fcfc
040405040406fc0604040604
040404040406040504040605
0504fbfc0405040404040404
04fcfc05fa0405040705fcf7
fcfcfc04fcfcfcfa04fbfb04
fafbfbfc040507fcfbfc0605
06fcfb0504fb050604f4fc07
06fbfcfcfc0405f9fc05f608
fcf807fcfcfcfb0506fc08fb
0406f9fc0bfc0afbf9fb04f8
0404f8fbfcfc0404040407fc
fbfb05fcfcfcfafc04fbfc04
fb050404fb05fcfcfcfcfc04
040408fcfcfc04fc0604fc04
0504fb070508fc04fc04fafa
f904040404fb04fb040404fb
0706fcfb060404f9fc05fafc
fcfcf8fc04fc060406f9fb05
07fb04f9fc0604fc0605fc05
06fafb04fb07fcf6060606fc
06faf505fb06fc0b05fcfafb
fcfcfcfcfc070409fcfbfafc
04fafcfcfcfc06f8060604f9
f4fafc0df8fcfbfaf7fa04fb
fb070d04fc0bf9fcfa060405
fc05f90a080504fa08fc07f6
f80506fc04fb050504040504
fc06fcfbf904fc0606fc04fc
04fafcfcfc0404fa04fc04fc
f9050704fb04f8fcf905fbfc
fcfc040604fa0404040405fa
0404fb06fc04050404fcfc08
fc05040504fbfbfcfbfcfcfa
fc060505fbfbfc0afbfb04fb
04fc050cfa05f9fcfc06fc04
f8fc05fcfcf90405050806fa
fcfb0b06fc06fbfafc06fb04
04fcfb04fc0504fc040806fc
05fcfafcfafcfbfc040806fc
fcfc040404050404fbfcfcfc
0504fc0404040604040404fc
0405060404fc04040404fcfc
08fafb0405fc040404050504
0505fbfbfc050605fbfbfa04
fa05fc0504fcfcfc050405fb
04fcfcfc0407fc0405f9fbfb
fbfb06f9fcfc05fa05060605
fb04fcfbf906fcfb0808fb07
f8f704fcfc04fb04fc05fbfb
06fc0507fcfbfbfbfbfb06fc
fbfb0407fc0407fcfbfbfb04
fcfbf8fcfc04fbfc06fc04fc
06fcfafc05fcfb05fc04fbfa
06060604fcf70604fbfcf8fb
fc04fafc04fb040807fbfafc
fcfc040404fc04fc040505f9
fc08fc040804fcf907fcf7fb
f9fcf6f9f905fc05fc05f9fa
f9fcfbfcfcfc090bfbfbfc04
fcf9fcf7fc0409f9fafc04fc
fcf4f9f8fcfcfc04fafafbfc
04fcfb04fcfc090404faf608
fbf705fcfc04fc040404fbfb
fa0705fcfb0408fc0606fc08
fbfcfbf705fcfcfbfbfc04fc
fbfcf9fcfc06fafbf9f8fafc
fbfc04fcfa040405fc0c0404
fcfa07fa060405fa050505fc
040dfbfc09fafafcfc0504fb
05fbfbfc040a0404fa04f9fc
0504fa0604fb07fc070806f9
09fb04fc08fbfb0406fcfafc
05fcfbfbfcfa06fbfc0404fb
fcfafc0cf8fbfbfbfb040505
07fc0804fa0404fa061005fc
08fbfc04fc06fc060405fbfc
04fc05fcfb05070a06f90605
fcfc04fc0405fbfbfb07fb06
0404fb04fc0812fcfcfafbfb
040404040506050404040404
fcfc04040404fc0404040504
fa04fc05fa0405fcfafc0404
0405fa0404fc04fafbfc0406
fcfb04fc04fbfafcfc04fc04
fc040408fc07f909fc0505fc
05fbfb06f80508fcfa0605fb
f60509050bfa04050604fcfc
fc0604fbfbfcfb0607fc0a04
fbfb04fc040405fcfc05fb06
04fcfafcfc0406f90704fcfb
05fafb05f90404fa04050404
04fbfb0504fbfc0604fcfc04
fc0404fb0404fcfcfc0504fc
0c0405f8040705f7fcfafc06
fc040404fc0705fcfa06f7fc
fbfbfcf9fbfc04fcfc050405
05fcfcfcf704090605fb0805
fc05fb05fcfcf8fbfc07f905
06fc05fafbfcfb08fc0408fb
fcfa05fcfbf9050405fcfcfb
fcf9fc04fafa0704fcfbfc05
fbfc06fb040406fc04fcfbfc
0406fc04fcfbfcfc05fc0404
fbfc04fa0504fc040404fbfa
060405050404f7fc050604fb
fcfcfbfbfc040d0504090406
f8040504fa08fc06f8fbfc06
fc04fcfcfb04070405fcfcf7
fcfbfc04fcfbfcfa040404f9
0405fcfcfb04fbfc04fb0607
04070404fc0404fc0407fc08
fb04fc0507fc05fc0404f906
040405fcfa040405fbfcfa04
060605f9fc04fb04f904fa04
fbfcfcfafb0404f904040405
04fcfcfc04fbfb0404050504
04fc05fc0404fcfc05040504
fc06fcfb0605fc070506fc04
04050a05fcfa070706fc04fc
0404fc0904fc040806110808
040404fc07fb05fb050806fc
04fc04060404040504040805
040405fc0504040405070404
fc0407fc0804fb05fb060404
04fbfa05fbfbfcfc05f9fb04
fb04fb04040405fa04050407
fc04fcfc0404fc0806f8fc05
0404fcfc05fb06060405fcfc
0606fc0404f904050506fbfc
040605040508040607040407
090608fc05fbfcfc05fcfc05
080508fc0506fbfcfcfc0406
fbfcf9fc04040704fcfb0508
0504fbfa040405fb07fcfb04
fcfc04fc07fcfbfb04fbfafc
fafc0704fafcfc0407fbfcfb
070405fb0508fcfcfc04f804
05040b04fc04fcfc0707fcfc
05fcfa06fcfb060505fcfbfb
fcfc04fafb0407fb05050a06
05fa05fc0405fcfcfc0406fa
0405fc04fcfafcfc0406fc10
fcfcfb080904fbfb05fcfc04
fa10fc0404fc0405050405fb
fafb09fbfcfc04100504fc06
faf9040504fcfc05fcfbf9f9
fcfa04fc04fb06fcfc04fcfc
04fa06fcfbfc0504fafcfb07
08fc05fb04fb050afc0cf9fb
fc05fcfc04fcfc0409f90407
fcfb050406fb04fcfb0afb04
fbfcfc040606f904fcfcfb05
05fcfcfcfbfb040505f9fc08
fcfcfcfcfcfc080404fc04fb
0507040604f904fbfafcfc05
fb0405fcfb04fcfc0404fcfc
04040406fc040405fcfc0404
fc0405040404fb06fc04fc05
0406fc0605fc0507fc0404fc
fc0405080505fcfc05040404
04040b05040afc04050604fc
fcfb0806040604fc05fbfcfb
05fcfcfc04fcfb08fc050404
0504040404fc05fc040404fc
fcfcfc040404fc06fa05fc05
fcfc0604fbfcfcfcfb040504
04fcfc05fafcfc0504fc0504
0404fc04fcfb06fafb04fbfb
fcfa0704040506fcfcfc04fc
04fb04fc0405f904f8fcfcf7
05fa05f7fcfc05fc04f5fb05
05050b0407fa04fbfc04fcfa
f9fbf506f9fa060d06fcfcfa
fc04080508faf7f4fa0605fa
fc07f9fa040404fafc05fafc
fbfc0505f004fafc05040a08
fbfb06fbfc04fbf9040804f9
04fa04f70405fcfc07f604f4
fc090404fc04080404fa08f7
04050404f9f80405fcfcf9fc
f704fbfa04f5fc0405fafcfc
05fcfafc04050404faf906fa
f9fc05fc07fc0505050404f8
fc0604070805fb05fb040404
fc05fafafb0406070504fa04
fb05fcfb05fcfc0605f606fc
f604fc0805fa0a08fc0705fb
04fc0404fafcfa05fb04fc06
fc04fc07040404fb05050504
f80404fc0505fc0404fc04f9
fb0505fc05fb0504fcfc0405
fc0404fb05fa0404fc0404fb
0505fb0607fafc07fbfa0609
fc0404fa0404fcfc0404fcfc
fc04fcfb05040404fcfc0404
0704fc04fb0504fcfcfcfb05
fb0604f8fcfcfc0504040506
04050404040504040505fc09
04fcfb05fc04fcfcfcfb0c04
fcfa05050704fbfbfcfc0507
fcfc0e0405fcfbfc06fc0404
fc060dfcfbfa09fafc04f5fc
fc05fb0704fc040807fafcfc
fcfcfbf904fc04fafc0609fc
0404050506060506040505fa
04f9040808050404fafafcfb
fcfc0606050704fc09f9fc05
050a0805fcf9060406fc0405
fafbfc0407f90506fbfc04f7
fcfcfcf9fafc05fb04fbf7fc
0bfbf904fb04fcfcfa04fafb
fcfbfb0404fbfbfbf904fb06
06fbfbfc0604fc04fbf90404
06faf9fcfcfcfbfa07f6fcf9
05fc04040504fbfaf605fbfc
05fafc06040804fc0cfcfc04
04fb04f9fb05fbfaf9f9fa04
0a080b050805f9fbfa04fcfa
1212f907050905fc05fa0508
fb0508fcf904fb0806070408
050804fbf709fafc0906fb05
041005fbf6040415fc05fc09
fafc05fb04f8fbfaf9fbfcfb
04fcfcfb0405fcfbf9fb04f6
f6fcfafb070cfcfbfafb04f9
fc05fcfcfbfc04fcfb04f9f9
fcfbfb07fbfcfbfcf9fa06fc
04fcfcfafbfbfcfcfcfbfcfa
04050605fbfbfc05f80504fc
04fcf9fcf8f9fa0406fbf7f7
08060706fb0a0a0806fcfafc
fbfb0b0dfc0405040a040406
f90507fbfcfc04fa06040704
050604f5060404fa0405fb06
fc05fafcfbfcfc08040a0afb
0404fc0404fc0404fafc0404
fb0407fc04fc04fbfcfcfcfc
fc040605fc040404fc0504fc
0405fc06fb050404040704fa
04040404040504fc04040404
fc05040404fc05fb04040405
0504090404fc040405060406
060505040506fc0604040405
0505040406fc06fcfcfc0506
fb040504fcfbfb04fcfb0405
06fbfc0407fcfafcfc04fcfb
04f8080404fc04fc050704fb
fcfcfbfa11f7fc05fc0404fa
04fa050505fc05fc070707fa
05fbfc04fbf906f9fcfcfbfb
08f80704fcf7fa0705040504
fbfafb050406060bfa05fcf8
04f60507fcfc050507050404
fbfcfcfa05040706fcfcfc06
05fc07fcfcf9fcfcfc0404fc
05f9f9fafc0405f9fb04fa06
0b08040506fcfbfbfa180405
05fcfcfcfc0404080508fc04
0908fcfcfa0404f9fcfc0404
040704f8fa06fbfb0705fbfb
0406fcfc04fb040707fbfb05
09fc0a04fc0508fbfbfc0708
fa0afb04fc0505fc0508fc06
0804fc06fbfcf905f907fbfb
fa07fbfb0409fcfa0a040afc
06fb0407fcfbfbfc07fcfc04
fc04fbfb0406fcfb0c05fcfb
05fb0507fbf9fcfc04fc0607
fcfcfcfc040604040404fb06
04fcfbfcfb0407fb0607fc04
fcfc04fcfc0bfcfa07f9fc04
0905040606fc050a0409fcfc
fbfbfafbfcfb04fb04fc04fb
05fc0504fafc04fc04fcfcfb
04fc0504fcfcf9fa0504fb05
fc0405040404040404fc04fc
0504060404fb04fbfc0404fc
0904fcfc08050505fcfc0705
fcfc0604040806fc04fcfcfc
fcfcf904fc07fb050bfc04fc
0404fc04fcfbfc0404fcfcfb
fcfcfc04fc040404fcfc0504
050404fcfbfbfcfc04fc0405
05060604fc05fc0404fcfa05
05040604fa04fc0904080505
fc05fcfb04fc05fb05fb0605
fc04fbfc04fb06fa09fcfcfb
0404fbfcf9fbfcfcfbfcfb07
fbfc05fc08fcfcfa0404fbfc
fc04fbf90704fbfc040404fc
f807fc04fc09fc06f8fc09f8
0407fa0406fc04f90504fcfc
0506040504fc07fcfc04fcf9
f6050906fafcf90410f9fcfa
040bfb0cfb050d0ff90cfcfc
060a08050afbfa04fbfc08fa
f804fcfcfc0a0406fafb0506
fbfcfb04fb0cfb0704fbfa0b
0906fcfcfafcfcfafbfbf6fa
0604fcfcfc060f050506fa04
fbfc060a10fc07fc0e0afc04
05fbfafc0705fafb11fcfcfb
fb0616fc09fcfb05fb070afc
fc0c040804fcf80506fcfcfb
f8fcfaf2fb06fcf5f8fcfbfc
f7090506040505f606fcfc04
040404050408fb0507fc05fa
07fb04fbfa0408fb08fcf705
060705f9fcfbf805fbf7f50b
040706fcfbfafb05fc0cfa04
0504fafcfc04fcfbfcfcfcfb
fafa040afcfb06fc07fb0405
0604fbfafb040405fb0404fb
fcfbfcfc08fcfcf904fcfcfb
fb060504f8fc0405fcfbfcfa
fc09fb0604fc04fcfcfcfc05
04fafbfc04faf9fafaf9fafb
04fa05fcfc0605f8fafa0505
f9fcfa04faf805040404fa06
04fcfb06060404040504fbfc
fbfc0404fb0404fc040404fc
fc05fc0604fcfb04040404fb
040404040405fc040504fc04
fc060504060404fc04fa04fc
040404fc04fcfafc0404fa07
06fc06fcfafb04fcfc050405
f8fcfbfb07fb04fcfb08fc04
fbfc04fc04040705fcfb07fb
04fc05fc07fc04fbfc040d05
04fcfafcfafcfcfb040906fc
fc05fc040804fc04040405fc
04fc04070404fc06fc0506fa
0605fc0705fb060505fa0505
050a070504fbfcfb0905fc04
fc070505f8fc04070406fb05
fc0b040408fbfa0604050404
fbfbfc0a04fc0607fc08fcfc
04fc04f8fc0604fc04050606
fcfc0407060508050407fcfb
fc0404fc05fb05fcfcfcfcfc
fcfc0404fcfc04fcfcfcfcfc
06fcfb0404fafcfcfc040404
fc04fcfcfbfbfbfcfc0404fc
06fc04fcfc050505fcfc0404
0405040404040404050404fc
0405040504040505040405fc
fb0406040505040605fc05fc
fa0504040405fcfc040405fa
fc04fb070505fcfc040404fb
0404fc05f8f807fc05fc0709
0407fc05fa060605fc05fc04
fb0704060707050404040404
060606050404070404fa05f9
fc040504f904fb0404040506
04050504050406040405fc06
050504fbfcfb0404fafc0405
fa05fbfcfcfcfb0605fc04fc
fcfcfcfbfb040404fbfbfcfc
04fa06fbfbfb06fa0605fafa
04fcfb07fa05fbfbfb04fa04
f904fafcfbfa0404f8fc09fa
0604fc04f70504fafcfc0408
05fb06fbfcfc0706fc050505
04fbfafcfc05fcfb06fcfafa
fcfc040409fbf80404fbfc04
fbfcfbfcfcfcfb06fcfcfcfc
fcfcfbfcfcfcfc05fb05fa04
050404040504040705040504
fc0407fcfcfcfc04fb040506
fcfc0405fcfcfc05fbfcfc04
05fc0405fc040406fc07fcfa
05fc04fcfa060efc04fcfcfc
fbfcfc04040907fbf804fcfc
fb0405fc0605050407fbfcfc
fb06fc04fcfcfcfcfc04fcfc
0c04f8fcfbfcfc04050806fc
09fcfcfbfbfcfc0b05fc080a
0704fafcfcfcfafafc05fbf4
05fbfcfbf9fcfbfb0507fcfa
fbfb0604fa04fbf9fcfc04fc
fc0cf604f9fc0404fbfafc04
f704fa0afb04fcfb070509f9
04fc0605fbfc08fbfbf9fc07
fafbfcfb0506060406fcfc04
06050404f904fafbfb07f8fc
f805fc0406fc0a09fb04050d
fc04f608fcfcfb060404f904
fc06fcfc04fcfcfc05fbfcfb
04fb0405fc0404fcfcfbfc04
fa05f8fc05fa050404fc04fa
07fbfbfc04fc050904fc04fc
06fcfc0404fbfc04040405fb
0505f906fc05040504fc0407
08f804fa050504070504fcfa
040704fcfc04040405060504
04040504fc040405fcfc0405
fc04fc05fa04050406fb04fc
05040504fafcfcfc07050406
04fa0404fc05040604070405
05fbfcfcfcfb0504050404fc
04fb0504040504040504fc04
fb040504fc0705fc040405fa
fcfc0404fc050404fc0606fb
fcfc04050404050404f904fc
fc040505fcfcfc04fb040505
fc0605fb0405040704fc04fc
05fc05fbfa0404040c04fc09
0506fcfbfcfcfa050bfc0407
fb0c0404050408fc07fc04fc
04fbf9fcf706f5fc05040404
fbf9060704fcfc05fbfb0cfa
0604fcfbfc060504fa04fcfb
040505fb0704fc04fcf904fa
fb05fbfcfbfcfb06f608f5fb
050708fc040afcfbfc09fcfa
fcf8fcfbfbfcf9fafbf70405
fcfb0408fa07f5fb04fc05fc
08fa040404fcfb0705fcfc07
fbfbf7fafbf90405fcfc0504
fa04fcf90804fa09fc0406fc
fcf9fafc0afb0607fb04fa04
0505fc0605fcfcfa0706fb04
04f0fc08fc05f904040bfc07
f9fc060609fc05f8fa06f8f9
fc07fa0408fcf904fb0408fc
0c06fcfafbfb07060606f609
0efbf5fa08fbfa04fc05fafc
0706f804f9f807fcf808fb05
0af8050504fc04fafcfbfcf8
06fbf5fc05f5fb0c08fbfcfc
06fbf907faf8fcfb04fcfc1c
f7040609f8f9fcfcfa060409
fc04f607080cfc0412f904fc
05fbfa09fbf6f4fbfbfb0408
fcfb04f5fc050404040704fb
fc0c070404fafcfb07fbf6fc
fc05060405fc180404fafc09
07fbfbfafaf8fc04f90a11fc
f80afc05f4fb0afafbf8fb05
f7fc0908f3f6f90507fb0706
f907fcfb0608040808fcfcfa
0a07fbfbfcfbfa05f7fc0b06
0406fcfb070504051205fcfc
fafcfc040afc040504f50405
fbfcfcfb040405f904fbfb07
f9040409050604040506f8fa
fcfa06070706f8fbf8f9fbf3
f90506fcfc090504f905fb0a
fc0504fcfcfcfb04fcf90604
faf8fafbfc0cfb06faf8fcf9
fc040405fb0bf90404fb05fc
f805fbfcfafcfcfcfa0505fb
040605fcfbfbfc0604fcfcfc
06fbf905050bf6fcfafc0404
0406040404fcf704fcfcfc05
05f70604fcfc06fbfb04fc07
060604fc040406fb04040405
06fcfc040afcfc0506fb0505
0404fbfcfcfbfb040506fc04
06fc07040406fcfc04fc0405
07fa04040504fafc0504fb04
fb0504fc0504fa0404fc0a0b
0406f50404fb06070405fafb
fcfcfb040408fc0504fc1004
0404f9fbfc090b0406f90404
0409fcfcfc050504fcfc0504
04f804fc04fcfbfcfc040510
fc06fb04fbf906fcfc08fb04
f9fcfb0c080c04f9fc04fb06
fc0404fb0409fc040504fbfc
fc04f8fc0504040404040404
060604040804040404fbfc04
050407fcfcfc0506fcf60905
04fcfbfc0404fc050504fafb
f8fb070af406fc080a0807fc
07fa050404fcfb04fbfa05fb
070afc0404fcfc04fc0e0705
0806f4fbfb04fcfc09f90404
fbfb0f0505fafb0bf9080afa
0efcfc040afc06fc0504fbf9
04fafa0406060f05faf906fb
0407fcfcfc0505fc0afcfc07
0805fb06050506fb05f60508
0608fc04fc040404040508f9
fb0505fbfaf6fb05fcfcfc04
050dfb05050cfcf604fc06fa
04fb04f9fb050406f906fcfc
fcfafcf7fafc07fbfc040806
fa0c0508fcfcfbfcfbfcfcf9
04f5fb07f907fafbfb08fb09
fcf30e0811fbf908fbf9f9fb
fcfb09fcfafb06f7050a040f
fbfb09f7fb09f90afa05fc04
fb070e04fc07fcfaf807fc04
06fc0dfbfc04f9fa090a05f9
fbfafcfc0907f9f9fcf9fafa
fcfc05fc061106fc06fbfcfc
0704fb05fbfcfb0404f805fa
fcfc05040404f604090405fb
fcf908fc0405050406fb0707
05fb05f9fb05070608fbfb04
f9040405fc08040409fcfcfc
04fcfafcfcfc050404fcfc04
0a040406fcfcfcfbfcfc05fa
04050404fc04fcfc050404fc
050704040404fbfafaf9fb04
fcfafcfb0406060404fafc06
07fbfc05fc050504fb04fc04
0404040504fb07fcfc0905fb
fbfc04fb0604080405fc04fc
0804fc09fc04fafc0406fcfc
0504fc04fcfcfcfc0405fc04
040404040406fcfc04050505
fb04fcfb0a06fb040404fc04
04fc04fcf905fb06fb0508fb
fb060505fc06fb04fcfcf909
04fc0a06f904fa050405fafc
04fcfc08fbfafcfafbfc04fb
fbf7fa0404fb0b0406fc05fb
f912fc05040b06fb04fcfbfc
040505fc04fcfbfb070405fc
fc0607fc050504040504fc07
fcfcfa060604fcfbfc0805f8
fcfafcfb04fcfc04fcfafbfc
0504fbfb05050405fafa0a09
fc0604fc05fa04fafc050404
0506fc05fafc07fcfafb04fc
0405fb05f907060504fc0404
fc0506fc04fcfbfcfc04f8fc
fb06f805fc040afcfc05fbfc
fafc0804fcfc06fa07fc06fc
fbfb0506fc0904050508fafa
04fc2804fcfbfc05fc04fc04
fc070606fc07fc050ffc0509
11fcf3fcfbfcfaf80706f809
07fc0407fcfc05fcfbfcfafc
040b05f907f804fb0407fa06
fcfcfcfbfb040afb04f8fc07
f9fc040bfc06fc04fbfcfc05
fc04fc04fcfcfcfc06f804fc
04080405fc05fb080404fc06
040804fb05fb050506fcfb04
05f804fc05fb04fa04040404
050704040404fcfb04060704
fcf70404f904fb0604fb0505
040406fcfc050506fc04fc06
04fc0404fbfc04fcfa040405
040404040405f90404fcfcfb
0404040404040404fbfc0405
04fc04fcfb040404fc04fc04
04fbfc04fafbfbfcfc04fc04
0404fb06060405fcfc0404fc
04fc0c0904fcfbfc04f7fcfb
04fb05040705fb06040604fb
fbfafbfb040afbfc040505fc
fc04fb05fcfb04fc05fcf708
fafa05fcfcfb04040407fcfb
fcfcfc04fc0405fcfcfcfcf9
fc0a04fc04fbfc05fb04fbfc
f80405fb04fbfcfbfcfcf7fc
f9fc0404fcfb05090708fcfc
04fbfbfcfb04040604fcfc04
040506fcfc040504fc04fb04
06fcfa0c09fcfcfc04fafcfc
fc07fcfc08fb06060508fcfc
f9fcfb0407fc04fc05050504
fcfc05fcfcfafb0bfcf608fa
06fcfc07fbfc0405fc06040b
fafbf605fcfc04fcfb060504
05fc0504fbfa05fcfcf807fc
f806fcfa0a06f7fc06fa0afb
fc06fbfbf7f908fb04f8fcfc
0404fbfcfa060707fcfcfc06
fb050405fc05fbfb0504fb07
fc0405060504040604f704fc
fc040404fa06fa04fc05fc06
05fbfbfcfcfcfc04fbfcfcfb
fcfcfb04fc040405fc0504fc
0505050a04fbfb07fc050504
08fb07fc040407fc05fc04fa
04fb040804fb0604fc0506fb
06fcf8fb0406f8fb04fcfcfc
07fcfc04fbfc0504050404fc
fc0604040505fc040406fa07
fbfc0504fc0408040405fcfc
fa0405fc04fcfcfcfc04fcfb
04fcfc0404040404fc04fcfb
fbfbfc0504050504fc08fcfc
fc04fc0404fb04fcfa05fc05
060404fc0404fbfbfc04fc04
fcfcfc040405040404fc0404
fcfb040405050404fc040405
05fc08fa04040404050404fc
040606fbfcfcfc04fcfbfbfc
fcfcfb060607070705050408
05fc05fcfc060405fc050404
0404fc0404fcfc04fbfc0404
fcfb050706fcfc05fc0404fc
090406fbfb05fc0404fb07fc
fb05fcfb06050604fbfc0605
fb07fcfafbfa0606040afc08
04fb0406fafc040607f80509
fb0704fa050a04fcfcfbfc0c
090ffc04080609fc06fcfa07
0506fafafcfc050807080605
06fcfc040605050905fb06fc
0404fcfcfc04fafcfcfbfc05
fcfc06070607fbfbfc04fb07
04f8fcfafc0405fc04fc04fb
05fcfc04fc04fcfcfcfcfcfb
f7fcfcfc040404fbfc08fcfc
fbfcfb0504fcfafcfcfb04fc
05fc0505fcfbfbfcfcfbfbfc
fb04fbfbfcfbfcfafcfcf8fc
06fbfcf9040604fc040504fb
fc040404050805fc07070404
fc0604040605070908fc0504
04040504060405fc04060404
0405f906fafc05fc0d07fc04
07fc070404fcfb08fcfcfcfc
04fc0ffbfafbfcfafa07fc04
0404050405070605fafafbfb
fc04fcfbfb07fb0404fa0404
fcfbfaf9fcfc0405fbfcfc04
05fb060404fb0605fcf9fcfa
fa050cfcfcfbf80405fcfafc
f9fb05fcfcfafbfcfbfc0dfc
fa06fa060d05fbfb06fcfbfb
fb0a05f905fcfcfcfafc06fc
0b09fa08fafcfb11f80c07fc
07fcfafb0a08fbfc12fa0405
0604fcfc0612fcfbfc05fcfc
fc0705fbf5fcfa08fafafcf9
0afcfcfcfc0406060807fcfa
fb0806f5fbfcf8fa0514fbfa
fa0412f90604f906fc0805fc
fc0505fbfc08fcfcfb0c0505
08fcfafcfcfb04fa04fb0afb
fc04f9fb05f7fb0a060afc04
0d04fa060405fcf9fb04fbfc
fc06050dfc0efc04fafb06f9
fc040406fbfb0406fc060505
04fc05040604fc04040505fc
fafc0705fbfb0604fc04f90a
0cfa040406fc08040409fb05
fafc04fb0907fafbfc060f06
fcf8fc0905fb0507fc0606fb
040407fa04fa05fc05fc0404
fc040704fcfc0e06fc0604fa
fb060505fcfc04fc07070505
0704060404fcfbfbfc0504fc
fc04fbfc0404fc05fc06fc04
fbfc040a04040504fcfcfa07
07fc04040907fc04fc05fc05
040afc04fbfc050405fb05fb
060805fc05040406fc040405
f80404fbfafc05050904fc04
04f9f6fb04fcfcfbfcfb04fa
04fc04fa04f704f4fb04fcfb
04f80405fc04fcf9f804fc04
04040404fc0404050404fc05
04fa040404040405f6fc0405
fbfa04040504060404040404
0404fcfcfb0404fcfa040504
fcfcfcfc04fcfcf904fc0405
0404fc04fcfbfbfcfcfafc04
fc04fbfcfcfb06fbfcfcfc04
fbfc04faf5fbf7fc04fc0405
fcfc04fafcfbfc05f9fa05f8
fbfb05fb04fcfcfc05fcfc04
05fc06fcfcf4fafb04fbfbfa
fbf7fbfafcfb05f6faf9fc04
fc05fc05fcfbfafbfcfbfa04
05fcf8fcfcfbfc04fc04fcfb
fc05fcfc04fbfcfcf9fafbfc
04040604fcfcfbfc05fc04fb
050506f8080505fb04fc0404
060504fb0406040404040409
08060404040605040404fb04
04050705fc04040504040405
04040504f506f9050b0806fb
05fc05f60606070406040a05
04060507050407fcfc040504
040604040404060605040605
04fa06040405fa0504080404
fcfc060404fc04040405fc04
04040407fc04fc0404fcf904
fc04f704fcfcfafc04fbfbfc
fc04fc04fbfcfc04fb050504
fcfc05fafb05fc0405fcf6fb
04fc0404f80504fbf9fbfcfc
fc04faf6fbfbfb04fcfc0404
fa04fafafbfcfafaf8f8fc05
fafbfcfc04fcfbf7f908f904
fc04fb0404fcfa04fb0405fc
040505fb04fcfcfbfbfcfcfc
0408fc0504040704f8fc0408
04fc07fb0406040407fcfcfc
04f6fcfa0404060405040c04
04fcf9fa0704050404040704
06050404fb060505fc0504fc
04fb0405fb05040708050504
fc0708fcfc04fc0704fc0405
04fc0404050dfcfc0407fc05
fcfc0404fcfa0404fcfc0507
fb05fb0604fc06090404fcf9
05fc05f904fcfafcfc04fb04
fc04fbfcfbfc070507051104
040904fc04fbfc0504fc04fb
fc06f8f9fcfbfaf9fc04fc05
06f9f6fb050404fc0804fbfc
fc04fcfbfa04050504fb05fb
04fa1106f90b0405fc09fc05
0a0509f804fc05fa1afcfbf6
f9fbf8fbf9fc04fbf8fcfb05
f9050904fbf7f7fbf9f00c08
faf2f7fcfb0604fa07faf7fb
050c0405f6041afaf7f907fc
06f7f70cfcfbf90604fcfbfa
06f9fc0bfcf7fc06fcfafaf9
faf3040ef81dfb0ffcf80d05
fbfcf604f8fb05f948f9fcfa
faf6fcfafbfa1606f9070af6
0b0705fafcfbf909f604fafb
fa05fa090604fbfc06f7fcfa
fc04fc050c04f904f704fcf8
f9040607fc07fc06fafcfcfc
fb1afbfbfcf7050905fc0a06
f9040504fcfc0cfb0405fc06
04fc04fcfb04fb05fcfafcfc
05070505fcfc040cfbfcfbfb
05fbf9f9fcfb0406040dfcfc
05f9f9fbfb04f9fbfb040404
fa04fbf80405fcfafcfcfc07
fcfafb0dfbfcfafbfafcfc04
0df9f7fb0706fc0afafc0604
04f7f9f70afc0405fbfc1d06
fcfafaf9fb05fb05fa0504f6
0406fcfafb0404fb05fc04fc
fa0505040d0409fcfb07fb07
06fc04fb04fb04fc0404fbf6
f9040404090405fcfcfc0404
040404fc0404fb09040705fc
06fcfcfb0dfbfbfc04fcfcfb
0407fb0c0405fcfafcfbfcfc
0507fcf80804fafc1ffcfaf9
fc0504080504fcfafc08fbfc
08040907fcfcfc060405fa04
060404fcfc04fc06fc06fcfa
050404040404fc040405fcfb
060a04fc040404fc040404fb
070b050604fc0404fb0404fc
05fb06fb060504fa05fcfcfb
fc04fc0404fcfc070904fcfc
04fcfcfc0404040404fcfc04
fc0405040404050407fc04fc
fcfc040607fcfc0605fc0505
04fcfcfbfc040405fc040405
0604040405040404fc04fb06
04fc04fbfcfb060c070705fb
06fb0507fcfc04040afc05fc
fafcfcfcfa040f07070cfafb
fc08fa040506fc0404f9fcfb
0a090404fa0404fc05070906
06f808040404fcfcfcfcfafc
08f9fcfcfcfcfc0d04040406
fb060a0405fc04060405fcfc
040404fc0407fcfcfb0504fc
fcfbfc0405f904fc05fcfa04
040504fa04fb04fcfcfc04fb
fcfaf9050404fc0604fb0404
04fc0405fc05f905fc05fc04
0404fb04060407fcfcfc0405
fbfc05040404fc040407fbfa
04fafa050404050704fc0405
04040505fc0504040a080404
05fc0a0904040504050404fc
fbfcfc04fc0605040405fc05
fc040a0904fb040505fcfc05
0b09040505fbfcf9fbfb06fa
0904fb05fb04f9fbfc0607fa
0404fafc04fb0605fcfcfb07
0406fafcfc04fb05040404fb
fcfc05fbfcfbfa05fc0604fb
fcfcfc05fcfcfcfc04040404
05fc0705fc04fcfc0404fb04
fb0a06fb0404fbfb040705fb
0405060407fb07fbfc0507fb
070404fb050406fafb0407fc
04fc0404fbfc040604fc04fc
0404040404050407fb0604fc
fbfafc0405fcfcfc05fcfc04
07fcfc06fc06fb0409fbfb04
fb04fc04fcfcfcfc05fbfc04
0408fcfcfcfc04fc04fbfc05
07f9040404fbf9fc04fcfcfb
06fbfa07fcf904fafbfcfcfa
fa0504fb07fa0405fc0ffbfa
090504fafb06fcfcfbfcfc04
060bfafcf90afbf9fb05fc04
fcfbfbfc05fcfc0505fb05fc
fa04fc05fcfc04fc04fb04fc
fcfcfcfc04fcfcfc040604fb
fcfcfcfcfbfc04fcfcfc0407
06fc05fc0afcfb06fcfcfcfb
fcfcfc04fc050606fcfcf904
fc0405fcfc04fc05fcfcfc04
fc0404040506fc05fc04fafb
040404fc040504fcfa04fc04
fc04fbfcfc04040404fc0504
040504fcfb0404f804fcfc04
fa04fb040405fcfb050607fc
04040d04fb040604fc06fc04
05fbfcfcfcf904f807fcfc06
fc04fc04fcfcfcfcfc04f8fc
040404f8050b0408fcfb0904
0506060405fb04040e0409fc
0404fc0404040404fbfcfb06
fc05fc04fb04fb0404fc05fc
0704fb04040404fcfcfb04fc
fafc040505fc0406fcf805fc
040406fcf8040608fafcfbfa
fbfb04fc07fbfcf50804fc04
fbfb05fbfbfcfc05fbfb06fc
06fbf7fbfcfb06fcfb04fbfb
0907fbfc090afb05fc04fbfb
040404fc05040604fc060405
0504fcfb05fcfa04fbfc05fc
fa07f908fc07fbfc0405fcfc
05fcfcf304fc0409040407fb
fbfcf9fc0407fcfcf9fc0504
fa04f304fb0705fc050509fc
04040409fcfc05fb04fa05fc
060806fb16fbf7fcfcfb0804
06fcfcfc07fc04fcfbfa04fc
05f507faec08f70c04fcfc04
f9fafcf8faf5f4fb040606fc
07faf9fb05fa040709fbfb04
f80cf7fcfafafc04fc06fbf9
ee05fa040b0e12fafa0cfc04
fc09fb05fb0805fafbf9f905
13fcfbfb08fa0dfcf60705fa
0709fcf90505061b05faf8fc
05fc0b0cfb08fc050504fcfa
070504fb08040507f80408fc
fcfc07fcfb04fcfbfcf9fa04
04040604fa04fcfc0504fc04
06fcfcfb0404fcf705fb0504
0504fbfc05fbfcfcfc050704
07fc040405fb04fbfcfcfcfb
04fc05fc0504fbfc06fafc07
04fb040404050806fcfc0504
07fcfcfcfcfb06060604f9fc
fcfcfa040706f807fcf70407
09fcfbf9060404fc050b0507
fc05fbfc04fc04f806fcfc04
fc06080408050404050405fb
0504050404060408050604fb
0405040404fb04fcfbfc07fa
04fc0604040504fc04040505
0404fc040408080505fc0406
fcfc06fb0606080404040504
fc0506fc0805040405050bfa
0706fcfc0405fcfb05fc06fc
09080504040bfc04fc050804
fcfafc0f0504050afb0dfafb
07060c0608070c04fa050afc
fc06050404050404fcfc09fb
040405fcfb0a040606060f04
06fc0404fc040507fc05fc06
0808f9fb06060407fc05fb09
04060604fcf9fc05fcfc0704
050507040405fc050407fc05
04fc04fb0407060a08080409
06fcfb050504040504fcfc04
04fc050407fb04fc0405fcfc
fbfb0604fcfc07070804fcfc
04fbfbf9fafcf8fc09fc04fb
fc06fcfb0407fc06fb06fbf8
fbfcfcfcfc07070606fc07fc
fafcfafb04050704fbfbfc04
0806fcfa0a07fbfb0506fbfc
08fcfcfbfc0604fcfc04fbfc
0504fbfafc04faf9fcfbfcf9
fc050506fc04060405040406
0505fc05fcfc070507fc0afc
fcfc04fc04fc04fcfb0404fc
04fbfc04fc04060504fc04f9
fafcfcfaf90405fa06fcfc04
fb0705fb04fcfb04040405fb
fc040607fb05fbfcfc08fcfb
06fc0506fb0404fcfc04fafc
06fcfcfcfbfcf8fb04fc0805
fcfa04fbfb09fbfcfa06fcfc
fcfc04fc04040705fb05fc05
fc0405fcf8fc04080405fb05
040507fbfbfc0607fcfc0505
fc040406061004fc05fc04fb
fcfb0704fc060405040607fb
04050404040504fcfc05f904
040806fb0706fcfcfc040404
07f9060f07fcfa040406fc06
0604fc0c0405fbfb0504fc06
0506060408fcf9fc050406fb
fc060405040504fb04fcfc04
0406fbfc0604fb0504fc04fa
fb060405fa0504fcf8070904
0405fcfb060707040405fb04
fc05040904fafcfbfb040405
0404050405fb050404040404
fb0508040704fc06060406fc
06040405fc07fb04080cfc04
04fc0807fb040704fc040404
04fcfcfafafcfafcfb0b04fc
06fcfbfa04fbfcfcfb050504
fbfcf8040408fa0404fcfb07
fcfc070404fbfc04fc05f8fc
f5fb050704fcfbfa07fbfcfb
07f7f7f7fa05f90e0bfbfb13
05fafc04fb080506fb06fcf9
060cfafcfb09f8080405fbfb
05fcfcfcfcfc05f9f704fc07
fafb06f7fbf8fcfafcfa0504
04faf90505f804fb061809f6
fcfc0ff908fbfcfc07fb04f9
04fcfcfcfc0406fc05040406
fbf8fcfafcfc05f9fcfbfbfc
0408050705fcfc05050407fc
fbfcfcfcfb060405fa09fc04
07fc06fbf9040404fafafbfc
f7090b06fc0cfbfbfc06fbf8
050507fbfcfa050804fbfcfc
f705fcfbf8fbfc04fb05fc07
0609f611fafa0506fb04fb05
fbee14f9f9fbf8f9f90404fc
f805f8f9080e07fb04fc0808
fafbfc0b05fbfcfcf510fcf7
f806fcfcfcfc0a0505081007
18fb05f8fcfc0dfafc06fbfa
0cfcfbfbf8f804faf5f9fafc
0ff606fa0b0820fcf604f7f5
06fb090404fb050707fbfb08
fb19f60505fc07fafaf9f7fb
fb040404fa0704fbfcfcfc07
05fc0705fcf6040404f909fc
fcfcfaf9fc05fc0405fc06fc
fcfcfb0604fa05fbfcfc080c
0afb0604fb04fc06f9fcfbfc
fa0508fcfa0405fc04fcfc05
0406fbfbfc0405fcfc0afcfb
fcf5fc0afa08fafa08fbfcfc
fcfcf8fc04050704080afb07
f90705fafcfcf9fb040504f9
05fafbfbf81109fc05110505
040504fb04fb0504fbfb05fb
f8fcfcf908f90409fbfc0406
05fcfbfcfcfc0604fbfc0804
fcfc07070507f904fbfb0404
04fc050404fafcfc0607fcfb
050505fc04050504fc040404
fc06fc07fcfc05040404fcfc
fb050404040407fc0706fc04
fcfc0404fc0504fcfb04fc05
fcfc05fc0704050405fc0404
fc05080d05fc07fc06fc05fc
fc04040404fcfc0607060404
04fc0cfcfbf8fb04fb0504fb
05f8fcfcf904fcfbfafb04f9
fcfc060404fcfcfaf9fa0afc
04fcfb080707fcf904fb07fa
04f8f8fc040504fb06fafbf9
fcfc07f9fcfb0cfcfbfb04fb
fafcfc18fbfc060406050404
0404fcfbfb040406fbfcfcfa
f8fbf90406fbfafc0707fafc
fc04060404fcfc07fbfc0b06
fa06fbfcfbfcfb04fbf805fc
050406fafbfc04fa0a04fc07
fbfb0404fcfc18fc0409f9fb
fcfc11fcf8fcfa0625fbfbf9
fcfc04fc040405040605fafc
fb070e09fafafaf60507fafa
fbfcf707fbfcfbfb0704fa04
05fa05fc050af907fb060bfa
fc0904fa16fb06fcf9fbfb05
0406fc090cfb13fb061bfc08
fb06fafc04fbfcfc1cf92bfc
071408fbfbf9f9040407fbfb
fcfc05fc06fcfaf70605fcfa
fcfcfcf3fcfafc08fb0705fc
14fbfc0804fcf9fb04fbfa0e
04fc040bf7fc11fbfcf91506
fa0413fcfafc07fa04fafc1a
fcf9050efafafaf9fcfc05fc
0505f904fc0405fbf8fcfbfc
06fbfc0404fc05fbfb06050d
060404fcfc05fc04fc04fc05
f9fcfc10fafc04fcfb05fcfc
fc07fcfa07fbfcfc050bfcfb
fbfcfb0f040706fc0405fcfc
fc06fcfcfb04fb040605fa04
06fbf604f909f9fa040404fb
04fc04f6fc05040dfcfbfcfc
fc0404fbfb06f708fcf712f9
fcfcfcfc04fcfcfb04fc04fc
fb0a0406fcfcfcfcfb04fb04
11fc07fb0a07040405fcfbfb
fc050708fcfa04040704fb08
04070406fc0404040404060a
0406050504fa07fb05fcfcfc
fcfc060504fc08070404fb05
0604fbfb04fbfafbfc040405
fc04060806fb070604fc06fc
fc04040605fc05fc0705fcfc
04fb0404fcfcfb0404fc04fc
fcfc0408fc040405fb07fcfb
f8fcfcfcfc04fcfc04fcfcfc
05fcfcfcfafcfafcfc04fc04
fcfc04f8fb04fafcfbfcfb06
0607f9f9fb05050404040404
fa04fcfbfcf9fbfcfcfb05fc
0408f804fc04fcf905fa04fa
040604fb0405f90506fbfcfc
fcfb04fcfbf905fc06fbfc08
0506f9fcfbfb05040404fafc
0507fc08fb0cfc06fcfcfb05
f4060afc0a0505f705fa0706
0a040f0af9060e04fc06fc04
04fcfbfcfcfb04fc060607fc
04050a04fc0504fc07fbfafc
04060509fb0509fbf60406f7
fb04fa04fb0404fc0604fcfc
08fafcfc070405050504fafc
0505fc04f9fc0afcfcfc04fc
fcfc050afb06f9fc07f806fc
09fb050404fc07050efc08f7
fc05fb0404fcfcfc0404fb07
fc0a07fc0504fa05f904fcfb
040404fcfcfc04fc0507f7fc
040605fc0404fcfcfc040406
04fc050406fc07fcfc050404
fc050404050404fc04fcfb04
04040504fc04080406050404
fb08fc050405fc04040405fc
fbfcfcf90606fc05fa0705fc
0505fc05fc04fc0606040605
0404fc0404fc04fb0404fb04
fcfb0406fbfcfc06fc04fbfc
fcfc040504fa040504fcfcfc
fbfc05fafa04fcfcfcfb08fb
fc0404fb04fcfa0a05fb0404
fcfcfb04fcf8fc05f8fb06fc
0f12f8fcfcf90605fc04fafc
0605fb04fc05fc08fcfcfc11
0d0c0dfa05fa0605fa05fa04
fc0afc0606fafcfbfcf9fc06
0ffcfbfc04fc04f9fcfc0805
fbfcfa1009fbfb0806fb05fc
fc04fc07fa0b050605fbfc05
fcfcfafb0504fafa07fc04fc
fc05fcfbfc05fa0ffb07fc05
fb04fb06fafcfcfc04040804
fc13fbfc0705faf90506fc04
fc07f8fcfc04fbfa04f9fbfb
fbfafbfc04fb0405fafbfb04
06060af60e0f05fc070409fc
f5f9f80709fb0f0a0405fcfb
fafb07fcfbfa07fcfa05fbf5
060bfcf908fb0bfb0b0afc04
0b040ffbfb04fb06fc080dfb
fb070b0505f9fbfcfc0bfcfb
10fcfa0405040bfa04f9fbfa
050408f9fbfc0406fa090504
fc04fb05fc0505fa080406fb
05fc0504fc06fbf9fbfcf8f9
05fa08fbfcfc040609080406
04fafc0405fb04050505fbfa
fb06fafa05f9fcfa0a09fcfc
0bfcfbfc0505fb0409fc07fc
fc0404fcfcfbfc06fbfbfb04
06fc05f9fb0605fc0506fbfb
050705fbfc04fcfcfc09fcf8
fbfbfb0a04f8050804fcf9fc
06f9fc080a0804fcfaf9fcfc
fb0404fc04fb04fcfc04f9fc
06fb0406fafcfc04fc08fb06
fc04070504fa05fc060504fc
fbfbfbfb040406040406fbfb
f8fb040404fc0404fbfafbfc
fc04060507fc05fcfcfcfc04
04fc05fcfcfc0404040605fa
070504fc0504fc0504fcfc05
fbfcfbfc0704050404040704
fa0405fc06050404fbfcfc04
04fc04fc050504fc04fc0705
fcfc05fcfcfc0404fc06fbfb
fcfc050404040404fcfb0404
fc040404fcfc04040404fc04
fc040406fcfc0405fc040404
fc0504040505fc04fcfa0404
04fc05fc06040405fc050405
05fbfc04fbfc04fa0504fcfc
fcfc040405040604fc060505
04fc040404fbfcfafc0405fc
040404fc0504040404fc04fc
fc04060404fc0504fc04fc04
fcfcfcfc0505040404050404
0505fcfbfa0507fb04fcfbfc
fc040704040505fbf9fbfc05
0605fcfb04040605fc050404
fcfbfa07fb0404fcfbfafcfc
fcf8f804fc0406fb06fc04fb
040505050404060604fc04fb
05fbfbfc0404fc06fc0405fa
fc04fcfbf90404fc04fafc06
04060505fcfcfc0408040405
fafc04fc0404fc05fbfb04fc
06fc08fcfc050404fcfafc05
fafc07fcfcfbfcfcfafcfcfc
fcfb05fb0405fcfc04060404
04040504fc04040405fbfcfc
05fc05fcfcfc040505fc05fc
fbfcfa05fc04fafafc050504
f804fcfc0405fcfb04fc05fb
04f8fc05fc04fc05fb04f7f7
0604fc04fb04f8f8fcfa04fc
0607fc0704fcfaf90404f8fc
fcfcfc0405fcf8040405f9fb
fcf7fcfafcfcfb04fbf8fcfc
fbf808fc04fafb0504fb05fc
fc05fb04060506fafaf8f9fc
05f6fc0afcfcfa0505fb04fc
04fcfcfcf9fa04fcfb04fc09
08fcfcfc04fbfcfcfb09fa05
04fc070504fbfbfa05f8fcfc
050d0404fcfbfb04fafcfb04
0a04060afbfcf1f3fbfcfbef
fb0506040404f705fc0508fc
fcfbfb040704fc06f9fa0409
0f070606f205f90c06040404
f9fcfcf40ffcfbfbfcfcfa06
04060afbfafcfaf104f6fcfc
06faf9f706fb05fc0507fb0c
fcfbfa06fb07fbfa0507fcf9
fafb041106fbfb07f2f81204
fc0c0507f9f5f6fbfcfcfa0b
05f3f80ffc040bfcfbfbf90a
04fbfbfa07050404040efcfc
06fc07f904fc05040704f9f8
fa09fc08040605fb0404fb07
0509fcfcfcfcfcfb070604f8
f9f8050505fcfcf8f804f8fb
040506fc04fc06fa07fc04fc
fcfafafc050906fbfbf6fa05
f909fc0406fcf9f7fbfb0506
0604fc0704fbfb05050604fa
fcfb04fcfbfb040905fcf8fa
fafaf904fc04fc04fb04fcfb
fbfa050604fa05fc05fc0504
04fbfbfc0405fa0704fcfbfb
fcfc04040404fcfc05fa06fc
0604fcfc04fcfbfcfcfbfb04
0404fc0404f8fbfc04f5fb04
04050506fcfc05fcfa0404fc
0404fbf4fc04040405f209f8
04fcfc0404fcfbfb06050508
fc04050404f704040404f5fb
04f60404f1f8050504fc04fc
0404fc0404fc07fbfcfcfc07
050405ed08f505fc06070a04
04effc04fc040405fb04fc06
fc05fc05060a06050404fbf9
08050505fc0dfc060404fbfc
0404060404f30504f2f904fc
fc0405fc070406050404fcfa
fb05fcfb04050405f7fc0404
0705fcfc080404fc05fc0405
f5040505fc0505fb0506f3f9
fcfc040404060408fc05fb04
04fc05fc0404f80404f9fa04
04fc040404fcf9fcfbf8fc04
f6fc05fb0505f3fa04fb05fc
fcfc05fa040404050504fafa
fb070404f805f80504f7fcfb
04fcfc040405fcf6fbf4f9fc
fcfcfb04fcfc04fafa04fc05
fcfbfafc06fb05fbeff6fcfc
0405060505fafa06f3fcfc06
05fc05fbfa05fcfcfcfcfc08
04fcfcfc0404fb0404fa06fb
04fc0404fcfcf3fcfcfcfcfc
04fc05fcfc05fcfafb0605f6
08040604fcfbfc0504fbfc07
0705f6fafbfc04fc04fcfcfc
06fbf80505fc04fcfcfcfc04
05fcfafc04fcfc04050b040b
04040404fc07fb0504fc0405
05f9fcf505fbfc0604fcf9fc
f8040404f904fbf904fcfc05
f705fc050404fc0405fbfcf5
050504060706f6fc05fcf104
0404f9fcf5fc0404040404fc
0404fc05f9fa0505fcfcf804
fc04040404040405040505fc
0704040405fb04fcfcf6f904
fcfc0404fc04040504f90405
0404fcfb0404fc040604fc04
05fafbfbfc04fbfa04fcfb05
fafc04fc06fcf806fcfbfafc
fc04fcfc0506fafc06fb0904
04f708fc05fbf5f9fafcfcfc
04fb04f906fa04fa06040607
fb04f6fc05fb08fcfcfb0704
f9f9fc05fc06fafcfa0405fc
f904fc0609fbf906f8f90505
fbfc07fc07fc06fb05f6fc05
fc04fc040404fc04fafb04fc
fa06fc05fc05fbfb0405fafa
fbfa06fbfafc07fc04fcfbfc
06fc06fafcfc06f9fcfcfc04
050504f6fcfbfbfbfc0604fc
0406fc0407fcfa0505fc0704
09f906fb050406050404fb04
070506f9fcfa04f9fcfb05fc
04fa0508070804fa07fa0cfb
fc0408fa09f907080404fc09
fcfcfcfbfa06050610f9fcfc
04fafa05fc0604fa05fbf9fb
06fbf9f50404fb0404f908f9
06050604fbfcfc04fcfb0406
fafc05fc0404fbfbfb04f8fc
fbfafc0406fb04fcfa04fc04
fa05fcfb04fbfcfcfb04fc04
fafb0406fcfa050a0505fc05
0505fcfcfcfb0404fc05fc04
fa080cfbfc05fcfb050405fc
fb0909fc0605fc06fb0405fc
06fb050cfc0604f9060f06fb
05fc090cfb0dfc0805fcf907
0907fa0504fc04fc08fc07fa
fcfbfafbfcfc05f9fa0704fc
f80506faf9fc05fcfcf706fc
fa04fcfcfa06fb050706f905
fbfb04050705fbfbfcfb0e05
04fb0405fc0405fcfcfc0404
fa0404fcfcfafb06fcfcfc06
04fb06fb04fc04fcfb050506
0506040404fcfa0505fb0405
040404fc0504fc0405040404
060404050404040406040504
fc04fb0404040405fc050504
05fcfc0404fc04fc07050405
0b05fa0604050404fcfcfcfc
f90404070407f90604050507
0405050afb09fc070607fc05
05fbfc040506fc04fc0606fc
09050405080604fb0704fb06
0705fc04fc060404fb060405
0406fa050805060cfc090704
0404fc0b09fb04f8fc050506
fc04fc040808fb07050b0a05
09080bfb08fb0505fa060407
0d0804fb05070c0706fcfc06
f90405fb0a0506fb0607fcf9
0607050504fcfc06fc050507
040505fcfc05fc0404050504
fc0508fcfcfafcfc0406fc07
faf9fafb04fb04fc0605fafc
05f90707fcfbfcfb04fc08fc
06fcfbfb0804fc05fbfbfb06
070708fc07f8fcfcfa04fbfb
fc07fc07fbf7fcf9f907fafa
06f905fb05fbfc05fc0404fb
fcfbfcfbfbfc0705fb05060b
0507f805fc0afc04050c0406
0efbf907fc04fcf8fbfc060a
05fcfbfc040805fbfaf9fcfc
040404fcfc0705fcfcfbf8fb
fafbfcfc08fcfcfcfb04fbfc
fbfcfc0404fafbfbfb0404fc
fbfbfcfcfc09fbfa040405fc
fcfafafcfbfcfbfbfcfafb04
fc0405fafbfbfbfcf908fcfc
fcfbfcfbfafbfcfbfcf8fbfb
fafa07fbfafcfcfa05050709
06fafcfbfc05fafafbfa04fb
fc0604fcfbfbfc07fbfcfcfc
05040604fc040505fc04fcfc
040505080406fc0604040404
fc0504fc0506040506060404
04fc0405060504fbfcfc0505
0404fcfcfc05fc04fc040405
04fc04fc04040404fcfc05fc
fcfcfcfbfbfcfc04fcfcfc04
0505f6040804fcf908040504
0504fafb06fc0504fa090505
04fa0afc07fcfb05f5050504
04040604fa05fc06fcfb0606
050506fb060d05040a05fb04
05fb04070404050707070404
fb07fc0405040805050504fb
0a09fbfc0a0a0a10fcfcfb06
fa0cfc09050508fc05050b04
0b05fcfbfcfbfcfc080406fc
fa04fb090405fc090605fcfa
0afbf6faf9f9fcfbf9fc0505
060b040afc0406040908fcfc
fbfcfb110405090a0506fbfa
fcfbfafa08f90a040afafc05
04fbfafbf90409fc06f50707
f7fbfcf90ffa06fc0506fcfb
fa05fb0404f604fbfbfbfb0a
fb06fb0ef713040405fc06fb
f9040812fbfc0405fcf9fb04
fc06fa05fcfbfa04fc04fa04
070405fbfbf9fcfa06fb0405
fa07fc040407fafc06faf9fc
04fb0504fcfcfcfa0506fb06
04fc07fafc05050405f905fc
f3f8fcfb04fc0705fc08f904
fcfc050b04fcfc08fcfb04fb
050405fb0804fcf905f606fb
fbfcfcfcfcf8fafcfb08fa04
fc07fa0507fafcfafb040406
fc070404fcf904fafb0904f9
fcfcfafc06f807050504fcfa
fbfcf90506fbfc04fbfc04fa
fcfb07fcfa05fc040bfafbfc
fcfb0406fcfc05fcfcfcfcfc
fc05fcfbf9fcfcfa0c04fc05
fcfb06fb04fcfc05fcfbfc05
0604f7fcfb04fc05fcfafbfa
fc05fcfc050506fcfcfb07fb
fcfcfafcfb04fcfafbfbfcfc
04fcfafcfcfcfb0604fbfc05
0705fbfcfcfcfcfc05fcfcf9
fcfcfafcfafafc04050404fc
fcfcfbfcfcfc050507fafbfb
04fc040404fbfc0604040404
04040404fcfcfcfcfcfcfc04
fc04fcfc060405fc04040404
fcfafb05fc04fc0404060406
04050405040405040404fcfc
04fcfc04fc04050404fcfc06
0504fc040404040404fbf9fc
0804fcfc05fcfb04fcfc04fc
0405f9f9f8fbf904fc04fbfb
0404fcfb0406fb0504060704
fcfc0504fc04fc0405fb06fb
fcfc040404fb0404fcfafafc
fcfb05fb05040405fc040404
fc04040405050404070406fc
fb05fb04fafb04fafcfcfcfb
08fbfafc0405fcfc04fbfcfb
fb04f8fc06fb0704040504fc
fbf9f8f8fcf8f704fafcfbfa
08fbfb07fb06fa0a0504fafc
fc05fc0804fa07fc08fbfafc
04fcfb09fc04f70504090505
05faf9fafc05fcfb060405fb
fb05fc08fc05fcfcfafcfcfc
fbfcfcf8fb0405fa07060507
06fc05fa0505fcfafbfc04fb
fb04fc08f9f9fbf8fcf7fbfa
0606fcf9fcfbfc0a06fc0704
04f904fc04fbfcf80407fc06
fb0504fbfaf5fc0608fbfc06
08fa04f90b050af9f804fcfb
05fbfcfbf4f90408fa04fbf7
fc0406fcfa050bf8fbf9f9f5
fcfa070cfbfc0d05fa0d0905
0afc05fcfbf805fbf9fc050f
07fbf40406080708fc07fcfa
fc10fbfc040604f80508fafc
fcfc0504fcfc0404f7fc0904
fcfa05fcf9070608fcfb0504
fcfc04fafafcfafcf9f9fbfc
fafc0406fc07060c04070504
f807060609fcfc0a0404fcfa
fcfcfc07fcfcfc05fcfcfbfc
fc070404fb05fcfcfcfcfcfb
fbfc04fa0404fafcfafc0505
fa05fcf9fcfcfb04fb05fbfb
060404fc0505fcfc0bfcfcfa
fcfc0704fbfa040c040508fc
fafb05fb05fafcfbf805fc04
05fb04fcfcfbfbfcfcfcfcfc
fa0604fc0409fc040704fcfc
fcfbfcf904fb04fcfc0404fc
fcfcfcfb050505fcfafcfcfc
04fc0404fc04fb040404fcfb
0407fb0606fbfbf7fa04fb04
fc04050406fcfa04fcfc05fb
0405fc0505fcfbfafcfc0404
fb050505fbfcfcfcfcfc04fb
04fcfb04fc0404fc04fcfc04
040504050404fc05fafc04fc
060404040404fc05fa050605
060604fcfcfcfcfb05040406
05f9fcfbfbfb040406060404
f8fcfbfcfc04fc04fbf80f04
0406060404fb040408fcfa04
040804040605fbfbfc0505fc
fcf804fb0809fcfb0404fc04
0d0607060a08fcfb0605fcfc
0504fafafc0704040a07fc07
0705fcfafcfc04fcf7060408
fcfbfcfbfc05fb04070706fc
fa0504040404fcfbfcfc04fc
fcfafb05fb080404fb040404
05fbfa05fcfb0605fcfc06fc
05fcfcfc0507040909040404
fbfcfcfb04fbfcfcfcfc04fa
fcfcfc04fc09fbfcf9fcfc04
fc0604fc06fa04fcfc08fb04
04040406fcf9040406fcfc05
fcfb0404fcfcfc04040504fb
07f906f505fb04fc0406f904
0c0504fcfbf90405f7040b10
fa09fa0505fb0504fc08fcfa
070704fbf90409040c040704
fcfcf7fcf9fb0605fb040505
040404fc0404040505fc0ffc
fcfcfafbfb04fc05f9040704
0405fcfb07fc040406fc0409
fa05fcfc05fafa05fc09fcf5
fc080404fbfaf90405070709
fbfcfbfb0404040406fc0404
06fa04fcfafc07fcfcfcf9fa
04fc04040405fcfcfbfc04fc
fcfcfc050605fcfbfb08f9f9
04fbfc04fb0408fcfbfc04fc
fcfcfc04fa0504fc04fcfc04
f9fb0404fb05fbfc0504fcfa
0604fc0506090404040907fb
06fb05fb0606fc05fbfcfb04
050cfbfbfc050404fbfcfcfb
0605050405fc0604fcfcfa04
fcf7fcfc04fc04fcfb040505
040704fcfb060504fbfb0406
fbfc04fbfbf9fb0b050afafb
05f908faf80405fcf9fcfafa
1106fb07fc060404050505f8
fbf9fc0c0405f906090805fc
0bfcfcfc0409fc05fa040506
fbfcfa04fcf9fafc04fbfb06
fc05fcfcfb040404fcfbfcfc
0604fc050405fc05080d0504
04040604f2fcf8fc04fb05fb
0404fc04fcfc0505fcfcfa07
fcfcfbfa06fbfc05fb0806fa
f904fb05fbfcfbfb0509fcf9
fcfcfcfb05fbfc04fbfcfafc
0904fb0a05fc04f805fc08fc
fbfc0e0604f8fb100b04fafb
05fb07fc06fc0bfc0f0704f5
0504fbfb06f604fa04fc0806
f9fc0507f9f9070d080507fc
fa0405051110fafbfb0a04fc
0805fc0c0cfbfbfbfa0904fb
fc040504fbfc08050604fafc
fc04f90e08fcfcfa0404fc04
070405fafa06fcfa06f9faf7
fc0505060407fc04fcfcfa06
fcfc0705fcfcfc0407fbf906
04fafc05090507f806fb04fb
050404fc05fc0505fafcfc04
fbfa05fc11fc05fcf7fcfbfc
fb0404fcfcfc04fafb04fcfa
0406f7fcfa05fcfcf5fbfc06
040ffcf9fafb06fc0506fa07
04fafb0a1c0b07f7fcfc0704
f504fb0405050504fc06fb04
060405fcfa0405faf806fb04
fafcfcfc04fcf5fcfafc0409
04fb080ffafb04070506fc06
fa05fcfcfc0e0607050415fb
fcfc05fbfbfc0505fbfc0a05
07fcfbfbfc05fc05fbfafc05
fc04fcfcfafc0505fc04fafc
fbfcfaf9fcfcfa04fb05fb06
fbfcfcfa04fafbfcf8f9fb05
fbfcfc0508fc04fafbfa05fa
fbfc04fcfc0506fc0604fcfc
fc0404040704fc06fb070504
fcfb0504fcfc0404fbfc0404
fcfcfcfcfc0606fcfcfcfa04
fbfc040405050505fb06fbfc
0504fbfc0504fcf904040406
05fcfbfcfafcfafc07fc04fb
040c060507040404fb04fa04
0507fb050f04fcfc0604fc0d
fcfa050409fb04fcfbfcf9fb
fcfcfc05fc04f9050705fb07
0b0407fc0d0409fcfbfa0707
fcfcfcfc0606fbfc17041c08
fc06fbfcfcfb05fbfbfcfafa
fc0af7040404fc0604fbfc04
fc06fafbfc0406fbfcfafcfc
04040404fc0505fc04fcfc06
050406fbfb04fc04fafc04fc
fcfb05fc04f804fc04fcfafc
0404fc040504f9f90404fc0d
fc040505fb04fcfc060704fb
fc06f7fbfb09fb0b04070504
0405fc06fcfafc0404f309fa
fcfbfcfbfbfc0605fc0604fc
05fb040604fc0505fcfc04fc
08f904f905fcfcfbfcfc0404
fc04fb0404f906fc0404fb04
0404fb050405f9040504fc05
04f8f60509fcfbfcfcfcfc06
0404fcfc04fbfcfc05fbfc05
fbfc04effbfc07fbfc06fc08
fbf904fbfafc040805fbf8fa
04fcf505fc04040504fb06fb
fc0404fcfc040404fcfc05fc
fc0406fc06fcfcfb040604fc
fbfb04fb04fa0604040404fc
f504fc06fbfc04fcfb040404
fcfcfb05fbfc0405fafb04fc
07fb05fcfbfcfbfcfcfcfcfa
f9040505f8fc0605050406fc
04fcfa05fa0605fc0404fcf9
fafcfcfc06fc05fafcf705fb
fcfafafc04040504fc0406fa
fc07fa04fb0505f9f8fcfc06
fcf9fcfcf8fcfaf5fb06fb04
fcfc05f9fb07040804040607
fc0b0504fcf8fbf8fc04f7fc
04f9040afaf90504fcfcfcfc
04f9fbfafafc090505fcfa04
05fc060409fcfaf9fafafc04
f4fcfafbfb0506f8f9080905
fcfbfbfc0d09fafb04f9f805
fc05fc040af9f90605fc04fc
0407fcfafcfb04fcfcfcfc05
fafb040504fa040705fcfc04
fcfcfcfbfc0904fcfc04fcf5
05fc050504070405040404fc
050505fbfc05040404fb0406
0504fa05f90405080404fcfc
fc0405080405060604060604
060705fb04fc0404fb0404fa
f705040506fc040406fcfafb
04fc06040507040405fcfc05
05040407fafcfc040604fb04
fc0406040404fc04fcfa07fc
fc05fcfcfc05040505040504
fc05fb040504fc0404040404
0506fa040504fc0505fc0404
040704fbfc0605fc0504fc04
0505fb04fa0406040705fb08
05fbfcfc0504fc0404fb0605
0404fb0404fc0404fc0404fc
040504fcfcfb04fcfc060405
fbfa0404fbfa050404fa0405
0406090404fc040407f90406
0505040906040406fcfb0704
060afb0404070404060804fc
0404fafa04fa04070504fc05
fb0604040bfc05050505fc07
06fc0404fc060406040b0506
fcfc04fc0af8040408050406
f708fcfafafc0a09fcfcfc05
04fc05f1fcfcfbfbfcf8fbfc
fcfaf6fb04fcf8fcf9fa0707
f805fcfcfb06fc08040505fb
04f7fcfafc0508fbfcfcfbfa
fcfa05fc07061105fcfaf9fb
04fcfbf8fcfc08f7fa06f5f9
f9fc07fa05fa05040605fbfc
04fcfafc0509fc04050af605
06060a04fcfcfbfc0604fc05
06fc0506fb040605fcf8fbfc
fb0409fafbfc0bfcfbfbfa05
fcfc04f8040404fcfc050404
05fb0504fc060605fcfcfbfc
fa0404fc04fc070404040409
fbfcfb0605fb0b0505040406
fa11fbfcfbfcfcfb0806fbfb
f8fafafafcf8fbfa07fcfbfc
f8f9f8fbfc040805fcf0fbfc
fbfb0405fc06fb07fcf70806
06fc0b08fbf8fcfaf8fc04fa
0512fbfb04f8fc05f7fbfcf9
f906f806fcfafa04fc041505
f80ff6fb0404fbfc0bfbfcf5
05fcfb04fa050405fa0604fc
faf9fcfcfbf908fcfcfc0efb
05fcf9fc06fbfbfc05fc05f4
0609f9fcfcfbfc05fc0406fa
05050704040e04fc04fcfafc
fc0cf604040704faf9fa05fa
04fc0507fbfcfa04fa050404
05040504fbfbfafc05fcfc04
070505040404fc0405040406
fcfbfafcfcfc04fcf9fbfc04
fbf8fafafc0604fc0408f804
0804040504fcfb0806fc0408
fc0604fcfc04fb05fcfcfa05
fcfcfcfc05fbfc0405040504
f9fcfbfc06040504040405fa
04fc05fa0404050404060405
05050704fc05040404050604
04fcfb04fb08fa05fc050405
05fc0406fcfc050504050605
04fc05fc05060404fbfc0705
0705fbfcfcfb0704fc060505
09fb07fc080bf8fcfa04fc06
fbfc06fcfc060504fc0504fc
fc040804fc05fc050407fafc
fc04050406fc0605fc040705
fcfafcfcfcfc0405fcfcfb06
fc0404fc040405fc04fc05fc
0404fcfc040504050504fc04
04fa05fcfcfcfcfcfbfcfcfc
04fbfc070a06fc0505fcfc04
fb050405fc0809fc0af9fc05
fc0407fafa0408fc0504fbfc
f804fc04fc04fcfc04fb0504
06fcfb06070704f905f9f8fb
080a04fa06fcfc040506fcfc
fcfb050506fa04f704fcfc04
fc04fafc04fc050405fbfafc
fb0404fb0704050afcfb04fc
fcfc05fc0404fbfc05fb0704
fb0504fcfc04fcfb05040404
080405fbfcfb0404fc07fb06
04fcfcfc07fc0ffc04fb04fa
04fc04fcfcfc0408fcfbfc04
fafafb04fb05fb04fbf906fc
04fcf8fafaf6fb05fb050405
fcfb0507f90504fc040405fb
04080a06fcf904fb06fbfc04
070505fb0505fc0404fafc06
06fc080405fcfafbfcfcfc05
fb05fa04fb05fc04f904fafb
04fbfbfcfc04fc06fc050705
04fbfc05fc05fbfc0804fc05
fc06fc09fc0d0404080605fc
fa040504fc040406fc06fc04
fcfbfb05fcfcfcfc06fcfc04
fc040504fcfcf904040505fc
fafcfbfcfc0504fcfc040604
05fbfcfc04fcfb05fcfc0704
fc0404fcfc04050405040405
04040406050404fc04fc0505
090405fcfcfcfcfc04050404
08fc04fcfbfcfcfcfcfa0704
fa0404040504f9fc07fafcfc
fc0606fcfbfc04fcfc0d0afc
0404fc0504fc040afbfc0806
fbfc06fbfbfa04fc0504fcfc
05fbfc04fc04fcfa0807fc05
fbfc0404fcfc04fcfcfcfcfc
fc04fafc0405fc0404fc04fc
0f0609fc09040506fcfbf7fc
fcfc04fbfb050605fcfafc07
070efb050409fb05fb040705
fc060907fa04fb0704040705
fcfcfb0604fcfc04fcfaf6fc
fcfbfc05f9fbf8fafcfcfbfa
fcfb0404fcfcfcf904f9f804
fcfbf8fc05fcfbfbfafafcfc
fc05fc04fbfc0604fc04f905
fcfc04fc0504fc17fbfcfcfa
07f805f90cfa0505f7f804fa
fbfcfcfbfc0f0dfb06fb0efc
fafcfc0efc05fbfc0a06fc06
fc25110a04f9fcfcf4fc05fc
0d04f908fafa040808f90607
fc06fcfc0c05fa0c0807f706
f8fcfc0819fb06fc06fb1705
fbfbfc0504fa06fc090a0605
fc05fb05fb04fc04fc06fc04
fa06fcfbfcfcfcfc060404fc
fa0504fb04fcfbfb04f7fbfc
fa0404fc0804fc040406fc04
f904fc06fc0604f8fb05fcfa
fbfbfb0dfcf9fb050bf6f8fb
0407050a050b05f804f9f7f9
06fbfb14fbf9f9f704fa0508
040405fcfcfb0604f80405fb
040804050504fc0905fc0604
04070404fcfbfcfbfbfb0405
fcfc0a040506fafa0704fb05
f9fc04fa0c0704fcfbfc0604
fb0708fb09fb060506fb0804
fc05fc04fc05fcfcfcfcfc04
0409fb05fcfc05fcfbfbfafc
06fafa060604fbfc050405fb
04fcfbfcf7fb060404fcfb05
04fbfc04fafc0505040504fc
fcfb040404fbfcfbfb05fcf4
05fafc04040506fcfb06fcf6
0404fcfbfc0404fb04050404
05fc05f7fc04f704040404fc
040604fafcfc04040405fc04
fb04f404fc040604040506fc
fcfcfc070405fcf5fbfcfbfc
0505fc04fc040505fb040405
06fb050404fcfcf8fcf705fc
05fbfbfafc0404040404fcfb
ec05f9fcfcf405fbfcfc0504
fafafc06f7f9fbfcfcf9f904
0407fb05fa09fcfb04f805fb
04fc04fcfc07fbfb0404fcfa
05fb05fcfc0404fcfcfcf8fa
f10504fcfc09fa06fa060805
e6fbfc07fc08f5fcfbfafa05
08f3f6faf9fcfc060405f606
0bf704f804faf7fafc09fcf9
06fc04fc0404fc06fbfcfcfb
fafc04040404fc0504060405
04f8ebfcfc05f9fcfcf30404
fbfaf9fb05fcfcfc05f8f9fa
040606fc04fc040404fb0405
0404fb0604fcf80404f704fa
fc040504fc05070605060504
0504f605fcfb0605f704f805
050504050405fcfc05fc05fc
fc0404070404f9fbf7f90404
04fcfb04fcfbfb0504fc04fc
04fc0404fcf7f908fc040404
0408fb0404fb04fbfc0405fc
0405fbfc0504f405fbf70404
f6f9fc0704fc04fc0404fcfa
fa04fc040405fb0405fc05fc
0504040404fc04fa04050406
040405fc040405070404fc05
fc04fcfc0705050404fcfc04
0405fcfc050504fb040404fc
04fcfc050505fc0504fc0405
07050404040805050404fcfc
050706fcfc04fb0608040604
0604fafa04040404fa050405
05fcfc0c08fbfc05040705fc
0905fcfb070505fc05fb04fc
050f040506070404fcfcfb04
04fb06040d050407fb04fcfc
fa05fcfb0504fc04fc050604
050404fc07fcfc04fc04fafc
04fb08050404040506040607
04fcfcfcfafb0404fcfb04fb
fcfafcfcfcfbfcfcfbfc05fb
050a05fbfcfcfbfcfc04fcfa
fa04fc06fbfb04fcf90605fa
09fafcfbfc06fcfcf9fc0404
0405fcfa060404fbfafafbfc
f90904fb04fb07060405fcfb
fcfafb04fcfcfbfcfa06fb05
fcfcfb040604fcfc04fcfc0b
fbfc04f9fafbfcfafcfbfc05
07fbfb05fc040604fc0404fc
0704fcfcf9fcfcfbfbfbfb04
fcfafcfafa04050404fcfbfb
0505fc0505060405fcfbfcfb
fc0404fcfb04fcfcfc04fcfb
fc04fcfc0404fb06fc0504fa
05050904fc0506fc0408fc04
040404040608040405040404
040404040404040504040405
0406fbfc04fc0404fc04fc05
06fc070404fcfcfc040409fc
fc05fcfcfbfb0507050504fc
fc0809040506fb10fb0b0405
04fc07fb040609fc04040704
04fcfc09040506fb07040905
040405fbfcfc040504fcfcfb
05fafc05fcfcfc08fb06fcfa
05fcfcfc04fcfa04fa050507
04fc060506fc04fc04040404
04fc05050404fcfc0f05fcfb
fc05f805fcfafbfcfc06fc05
0804040a05fc04fcfa07fcfb
04fcfb0408fcfcfb0bfbfcfb
12fafc07fbfb080a04f9fb04
fb08f60704fcf7f9fa0405fc
fa04fcfbfa06fafcf904fc06
fa0afbfc06fafcfbfb0705fc
051afcfa07fa04fa1005fbfc
0e05f7fcfb0c0ffcf506fbfb
fafcfcfafbfc05fc0510fbfa
04fcfbfcfc0404fbfcfb04fc
0a04fc060605f9040b0504fa
fbfbfc05fcfc06fcfc06fcfc
fcfc0604fb04060707fcfcfc
fbfcfcfc0bfcfc0dfc08fcfc
0e04fb04fcfcfa0bfb04f7fc
090bfcf909fc08070b0afb05
04fc0710fc09fbfcfcfb07fa
05070404fafbfcfcfcfbfbfb
04fc0a0504fb04fc0405fb07
fcfc0404fc0406fcfc05fc04
fc05fcfbfc0409fc090605fc
04fcfcfcfa0408fb06fafb08
fc04060afaf906120405fb0d
04fcfb0b06040404fc0afb05
04fcfcfc0905fcfc04040504
fb0407060b04fc0404fc07fc
fc06fc040afcfcfbfc0605fa
05fc040404040405fc04fb04
04060505fc04050404040504
060705040404040505040504
080504050505050507fc05fc
fc050507060505070404fc05
0405fc040605fcfc0608fc04
fbfcfc04040504fc0405fc04
fcfcfc0404fcfcfc04fc0404
fbfb05fb0509040d07fcfa04
fc050505fc04fcfc04fc04fb
fc0404fcfcfcfc070404fcfc
fbfc05fb040a0406fbfc07fc
fc04fcfcfb040704fc04fbf6
fcfcfcfcfcfbfcfbfbfcfcfc
0b090e0b0504fc05f9fc0407
04fbf6fbfc0505fcfcfc07fb
07fb07fcfcfc06fc0404fb04
fcfb04fbf8fb04fc08090405
0606fb050406fc0404fbfc04
0405fbfcfcfc05080dfcfcfb
05fb07070704fb0404fbfc05
fb0407070ffc080504fb0508
fc0506fb040404fc0408fc04
fcfa0506fcfc040bfc04fc06
050407fc04fcfa07090604fc
fb05fcfc04060507fc04fcfb
05090904fc06fc040404fb04
0405060504fc07fbfb040407
04fc05fb040404fa040604fc
0406fcfcfc08fc0404fcfcfb
fc090404040b04fcfcfb0604
fcfcfc0408fc0505fc0505fc
fcfb0409fc05fc04fc0404fc
0507fcfcfcfc07fc08fb0805
fc05fc0405fc0405fbfcfc04
04fbfcfafc08040605fcfcfb
04fc04fcfc0704f805fc04fc
05fc05fcfb06060404fc0607
06fcfbfcf6fcfbfafc05fb05
08fc04070604fcfcfbfcfafc
fcfcfb09fbfcfbf9f70a0505
04fc05fa0a06fbf90409fa05
070a04f60ffc040706f9faf7
fb07fa04f9fcfc0406f90508
0508fa0bfbf7fbfafc0c08fc
05fbfbf7fc0a0509fcf805fb
050404040416f906f806faf8
f7fcfc07fcf8fcfa0406fbfa
fa060506fb0604fb06f9fbfc
06fafb0404fb04fbfbfc04fa
fb0506faf807fcfcfbfbfc04
fb06fa05fcfa05040404fc06
fcfafa0405fbfa0407fcfc05
fc0406fb04fc040504fbfcfc
f8fcfcfb04fcfcfcfcf704fb
fc0608f8fcfcfc07fc0afbfa
05fbfcfafbfafa041afcfcf7
05fcf804f90bfb06fcfcfafc
fc04fafb14fc0efcf7fafcfa
04fcfcfc04fb1b05faf91afa
fbfafcfcfbfb07fcf8090cfc
0a16faf805fc04fa0404fb06
04040404fbfb06fcfb04fc05
04fbfafc0505fcfa05fc06fb
04fbfbfc0705f9fc040505fc
fc060504fcfcfafcfbfcfc05
fbfc0efb04fbfcfbfafbfcf7
fc05050704fa050408fcfb04
fb060408fc05fa040506fafb
fcfb04fc0804fcfcf90407fc
fc0507fc04fb04fc0bf90afa
0dfbfcf8fbfcfcfbfb06fc04
fb04fcfc0a05fcfb06fc07fb
04f9fb0408faf614050404fb
fc04fafcf90cfcfa05050509
fc05f70cfafc05fafbfaf9fc
fbfcfb1106fc07fafc0507fb
fcfcfc07fafc04fbfbf807fb
04040404fb0b0504040404fc
fc0a060405f804040406fc05
0404fb0504040505fcfcfb04
0704fcfb05080404fcfc0604
0505040404fcfc0806fc0408
fcfc0406fcfc04fcfcfc0407
fc04040405fc05fc04040805
040404fb0404fc040404fcfc
0404fcfb04fcfcfc04040404
05fc04fc050405fc05040505
fc0504fc05fc04fcfc04fc08
fcfc04fcfcfa0404050605fc
fcfb0604fc08050504fc04fc
fc0404fbfc08fc0407fc04fa
04fcfc04fc0404fcfc05fc04
0504fcfc0504fc0706fbfc04
05fcfc060505fbfc0506fc05
09fcfcfcfc04fcfc04050504
fa04fcfafcfcfc0405fcfcfc
040406fcfcfc0505fc0704fc
0404fbfcfcfc05fbfcf90808
04fc0404fbfc04fcfbfcfc05
fbfc05fc05fcfc06fc05fbfc
f90ffb0a06fbfcfc08fb0dfc
fbfbfcfbfcfcfcfcfbfcfbfc
0704fbfcfcfc04fc040405fc
fbfcfafa07fb0504050404fc
fc090406fbfc07fbfafcfbfc
fc040707fcfbfc05fcfcfc06
fcfcfbfcfcfa05fa04fbfc05
04fcfafc050704fafcfb0504
0afc04fcfc06fcfcfb05fb06
05040407fbfc08fcfbfcfbf9
07fcf8fcfc050606fbfafb0f
fcfc0705fafafb0409040508
fcfa07fb050504fcf804fcfc
fb04fcfcfbfbfbfbfc05f9fc
05f9fcfb090405fcfb04fc08
fb06fc040404fc0405fc04fc
fbf706fb05fb0406fafb0505
fc04fcfc060406fcfb070705
fcfcfc0404fc05fc0608fb04
0405fbfa04f804fcfa070b04
fb06f808fc080404050504fc
06f7fc0507050505040afc07
fcfb06fbfc0504fc09fcf807
0a0605fa04fbfafc08fb08fc
0b05090504fc0406040505fb
fafb04fc0afcfb040705fc05
fc0407070409fc04fafcfb04
07040405fc06fa0506fbfc04
06fb050604fc080509fc05f8
08040b04070405050608fcfc
0405fa07050404fbfb04fc05
0804040504040404fbfbfb05
fcfc0404fcfbfcfc0504fc04
fc04fc04040404fc0405fc04
0504fcfb0b0404040804fb05
05fc04fc04fb06fc05080405
05fc04040504fc04fc050405
04fc0404fcfc04fbfc05fcfc
04fc04fbfcf80406040504fb
fc05fafc0505040405fcfc06
05fb0504fbfcfbfc04fcfbfb
fbfc0bfcfcfc04fc05fbfa04
0504fcfcfc04fcfb0604fcfc
fbfcfcfcfbfcfbfbf7f904f8
fc08fc070e04fc040c04fb04
0404fc04fa0706f904fc04fc
04040504f1040404f9fcf7f5
fc0408fcfafcfa04fbfbfcfb
fcfcfaf704f804fcfafc0407
0504faf9fbfbfcfcf90404f9
fa060804fc08fcfafc04fafc
0407fb0504260d0904fcfbfb
0505fbfa0614060504f807fc
fafc0507080607f9040506f6
040604fbfcfafb0605fb0404
060dfc050705fafc05fafc06
04fbfb05fcfbfc07fc0e0506
fb04f504070404fc04060506
f2fafb040604f904e8f70404
fc04fa0404fcf9fc04040505
fbfc0704f9fbfaf30a05fafa
fcfc08fbfbfa040704fbfc09
fbfa05fc06f8fa060e0505f6
05fc06062a1210040506fc06
fafc04fc3110fcfbfa05fbfb
080608fcfa1306fb0504fafb
fcfc0efc0904fafa04fa0508
fbfcfc06fa06f904fafcfa04
080b04f6fcfbfcfbfcfb05fb
fb040a040b07070404fbfb05
fc0d05fbfafcfcfcfc0717fb
fc0504040504fb05fcfc0405
e7fcf5fb0405f404f0f90605
fb0505fb05e5fcf904040404
f9fb04fc05fc040f08f80404
fcfcfcfafcf704fc05040404
fa08fbfbfafc05fb070405fc
fcfcfcfcfc070d0604fcf9fa
0405fcfaf9050404fcfc1309
04f6fcfc05fbfafcfafc0404
05fcfc04fcfc05040404f4fb
0405fcfc04fafa04fcfa0405
05edfbf6fa0406f8f204fb07
fa0404fcfc04fceafa050504
fc04fcfb0404fc0605fbfb05
04fafc06fb09040704fcfb04
f804fa0404040404fb04fbfc
fcfcfbfc04fcfb0404f8fc04
fc040e05fcfcfc0f06fc05fc
f5f704f804fc04fbfc04fcfc
0405fcfcfc04fcfc0bfa04f0
fcfbfcfcfc040604fcfcfc06
f704f9fcfc0504fbfcfcfc04
05050504fc04fcfc0404f5fc
040405050504fb0504fcfc04
0408fc0404fcfc05fcfc0404
04fc04050404fcfc07090605
0404fc04fcfbfc0404fc0804
04fc04f4fb06fafc04fc04fc
fafbfcf8fc05fb05fc04fbfb
f9fb06fb04fbfcfcfa0405fc
fb0d06fc04fc0404fbfc05fb
f90506fcfbfc05040705fa08
fbfb06fbfbfb05fcfbfc04fc
040406fa05fbfb04fb0705fc
f90506fb040804fcfcfcfcfc
05fc04fc0605fcfcfcfc08fb
04fcfc06040efcf904fafc05
fa050609f906fcfcf5fcfcfc
f904f90bfb08fa0410fb0405
07f905fcfbfbfc04060506fc
0805fcfc07fcf705f9fbfbfb
08040cfbfcfc04fc06fcfbfb
fcfc040804fafafbfbfcfa04
08f904fc0505fb0a05060505
0afb0704fb06fcf90404040a
0504fcfcf906fafc0807fbfc
04fa06fcfcfafcfc05fb0407
07f904fc05fafcfbfcfc04fb
0a04fcfafcfb0504fbfb0705
fafa0604f805fbfbfcf9f704
fc040406fcfc0afcf704fcfc
f90406040509fbfc05040404
fbfafbfafcfc070511fbfbfb
f9fa05fc08fbfafc06fbfbfc
f8fcfc04050c05fc06070904
06fcfc1cfafbfc07040c0405
05050509fa06fc0bfcfcfc04
fc0afcfcfcf8080afbfcfcfb
0a050e0b0406fb04fbf804fc
fb09fbf8fcfb090df604fbfa
05fcfa0405f70b05fafa04fa
0705fc09f7fc09f9050c04f9
fbfcfcfc04f904050a08f705
fcfa05fafbfb04fc0804fb04
04fcfb06040b0804fcf9fc06
fcf8fbfcfbfaf9fcfc0606fc
fa06fa06fc04faf7040605fc
06f6fb06fc06fbf9fc0405fa
0505f505fa04fb04f806fb04
fcfc0504fbfbf8060a0407fb
05050607fafc08fcfc04fcfc
05fc040406fb04060404f9fb
07040404060405fcfc04fc05
070404fa04080504040405fc
05fc0406fb070404fcfcfb06
fa0504fc05fc0904050507fc
fcfc05fcfc04fb04fb05fc04
fc04fcfc0ffb050404fc0404
0707fc04fc0406f9fcfbfcfc
09fcfc05fc04fc0cfbfa0505
fcfafcfc06fbfcf8070406fc
04fafc04fc0504fc0410f906
fb04fcfc05fcfcfbfbfc08fb
fc06fc04040505fc09faf804
fc06fcfbfcfbfcfb04050411
0805050dfcfcfc0a040405fc
05fa060404fc07fcf805fc07
070afcfc040504fcf90f11fc
fc05fcfcfb050604040bfbfa
04fc05f7fcfcfaf7f9f923fb
0afc0b05fc05f907fcfc0510
04fa05040406fcfafcfcfb07
050404fc04fcfcfc0405fafc
f905f7fbfc14f7fc04040509
fb06fbfcfb04060404fc06f9
f90cfb040404fcfcfa05fcfc
f904f9fcfbfcfa04050604fc
fbfb090409fbfcfbf9fcfc06
0b0406fc0b04fc05fb0405fa
fcfbfcfc04fb04fa05fb04fa
fbfcfbfcfcfbfc04fafafcfc
fb06fc0404fc04fc04fc0409
05f90405fcfb07fbfcfc06f8
fbfbfb05fcfcfb04fafbfafb
0905fc040b050404fcfcfc04
040504fc040b06fcfc06fc06
fc08fc0604fc06050b040604
04fcfcfb0507fcfc070404fc
fc0404040504040706040404
0405fc0406050404fb050404
09fa0404fbfc04fc0504fc04
0504fcfcfc04fcfbfc07fcfb
fc050408050405fcf605fbfc
f50e0404f80afcf904fa0708
06fa04fcfb04fc12fcfa04fb
fafcf906fb060404fc04fc04
f60807fb0704040a050404fb
fa06fa0504fb0a05fc0f04fa
040404fcfcfcfc0609fbfbfc
04090404fbf6050406fc04fa
0704fa04fcfcfbfbfb0704fc
fbfb05fc0404fc05f9fb05fa
04080506f9fc05050404fcfc
fafc06f90404fcfbf9040404
0705fcf9fb05f70d04f60dfb
04fc0608fbfc0705fbfc11f9
04060409fbfbfafcfbf6f904
f9051005fc08fbfaf9fa0b07
fcfafa09f80605fcfc04fb07
040504fb05fc04fc0508fc04
04fb0e06fbfc05050808f8fb
fcfb0404fcfcf908fcfbfc04
fbfcfcfafcfafcfc04fbfc05
f90606fcfcfcfcfbf8fbfc07
fa07040504fafcfbfcfcfb06
f90904fcfc04fa05fc04fcfc
fbfc07fafcfb0404fcfcfbfc
0404fc040504fc0405fc0505
08fa0404040404fc04fc04fb
04fb0404040404fc04fcf804
0405070504fb06f706050504
0604f9fc0b040504f40807fc
fb0704fc0405fc0506fc05fb
0504050405fcfcfa04f80405
f7040404040a040404fc04f9
05050404fc0804fcfa060404
04fcfc050405fbfc050504fc
06fa04050604fafc04040704
04050705fc0bfc04fbfc05fb
05fbfcfc06040404fc07fa04
04fcfc08fc04fc05040404fa
fc060504fb06fcfc040505fc
f9fc060b05fc08fafc0507fb
040404fbfa04fc06fc050406
07fbfc050406fc070506fbfc
0604050506fcfcfcfc0bfcfa
0905fbfafc07fc0dfbfcf9fc
04fc0406fc07fc0807f6f90b
05fafc0b06fbfb140cfbfc05
08fb120508fcfc09040807fa
fcfc04fc05f906040604fb08
fc0704fb05fcfc07fc08fbfc
0805f9fcfa040404fbfc0604
040bfafcfc0afcfc15fa0604
06fb08fbfb0ffb09fb040404
fcfcf90406fc0406fcfcfbfc
fa04fc06fafbfbfc0604fb0c
fc04fa0705fa0605050804fb
fcfc04fb0404fc04fc06fcfc
07fbfbfb0dfc040511fcf908
090504050504fa04fc05fa06
06050406fb08fb0404f9fc05
fbfc0805fc0607090604fc04
04fa04fcfb0a04fc0afc04fb
fc07fcf904fcf904fc08fcfc
fcfc05fb0704fafb06fb0504
04070605fc0c04050705fc04
fc06fcfcfc0504fb0904fcfb
040404fafc05fcfcfc04fbfc
fc04fc0404fbfbfbfcfc0405
05050405fafc0604fc050405
0405fc04040404fcfbfc0404
0b06040504f7fcfbfc050407
04fafb050504fc0706fc04fc
fc04fcfc040407fc04f9fb04
0705fcfcfb06fc04fc0afbfb
05040505fcfb0404fa040404
0704fc06050504f80404fcfc
040404fcfb0405fc04fc0406
fb05fc06fbfa04fcfc050407
04fafc0404fc0504fb04fafb
08fc07fc04fbfb0405fc0404
fbfb0405fc04fc06f804fbfb
fc0405fc05fc05fbfcfb04fa
fa04fcfc0407fb040404fbfc
050504fc05fcfcfbf8fbfb04
0404fafb05090605fcfc04fa
fcfc04fa04fbf7f9fcfb05f9
0706fcfb04fafb0407fa0506
fbfbfcfc04fa04fcfc06fcfa
0404fcfa0504fbfc060404fc
050404fb0505fc040405fbfc
0404040505fb04fafc0404fc
0404fcfc0405fcfa0506fc04
fbfc04fb04fc040404fb04fc
040405fbfbfbfa0405fc0405
fbfcfcfb0405040504f8fc04
fcfcfbfbfc08fb06040407fa
0505fbfc0505fcfcfc06f8fb
04fc0604fafc0404f9fc04f7
fcfb050404fcfc05fc04fbfc
fc07040404fb040406fbfc04
f8fcfcfa04fafb05fcfc05fc
fc0404fc0707fb04fc0405fa
0605040504050404f90506f8
fb0605fcfcfb0504fc040b04
f6fcf8fbfcfbfcfc0405fcf9
04f80708fa05fc04fa04fc07
fc0504fc0404f70605f9fb07
fb0407040405fc06fbfb0705
04fbfa0404fbfc04fafc04fc
f9fc050504fb0504fb0605fb
0405fcfafbfcfcfc04fb05fc
fc0505fbfc040404fc04fcfa
fbfb05fc05fcfc06fcfcfafc
04fb06fcfcfcfb0604fb04fc
fc0404fc0504fcfbfa04fcfc
05f904fc0704fb05fcfbfc06
0406fc04040404fc0404fa04
fcfcfc0405fc050404040504
0505fc060404fc0504fcfafc
fcfcfb04f8fcfc04fbfcfb04
04fcfcfc08fc070604fc04f9
0404fc050404fc06fcfb0504
fc040404fc0504fb05fcfc04
05fc040404050404040404fc
0404060405040406fb040404
fc0705fb04fc0704fc0604fc
040404fc060405fb0506fbfb
04fc0504040704fc06040404
fc0405fcfcfbfc05fcfcfb06
06fc0606fcfc05fcfb04fbfc
fb08fbfc0405fc0605040406
fbfa05fc05f8fc04fcf705fc
fb0404fafa080504fcfbfb07
090405fb040504fbfb0404fc
fc04050404040508fc04fb05
04fb0d0a04fb040507fb0705
fb04f9040404090404fcfc07
fc040904fc08fafbfc04fbfb
f9fafb080dfcfbfcfc04fb05
04f8080708f8f708fcfcfbfb
fc04f9f40efb090407fb0af4
fa05050407fcfc0506fafcfc
fb07fc06fc07f9fcf705fbfb
f3f811fcfb09fcfc14fcfcfc
f80606fbf5faf5f80afa1209
fcf5f8f9fcfa04fb07f909fc
07f0fafa050a040515fcfc08
040705040605fc050406fc05
fcfc0404fcfb0a05fcfc0406
fcfa04fa040404f9fb040404
fcfbfcfb06fc05fafcfcfc06
fb0404090607fc06fbfc07fc
06fbfc0505fcfc05fc040504
08fb0404fc07fcfc040506fc
04f9fcfc08fc05fcfcfcfbfa
fbfbfb05f2fb080504f7fb05
04fc09050507fcfcf9050605
fbfbfb05fb0bf9fa040f06fc
04fa0404fcfcfc07080509fb
fcfbfc0505fc04f7f9fa0408
fc0404fcfb0404fc06fcfb06
0505040605fcfc04fcfcfcfc
0505060404fcfb0504fc0404
fb0506050404060404040404
0406fc050507fb05fc0405fb
fc0404040404fc0604040406
0504040404fc04040406fc04
050605040406040508fc0904
fbfc0705fb0504fc050405fc
fb0404fa080605fc06fc0704
fa05fb06fcfc040406fcfcfc
fc08fb04fcfc04fbfb050804
05fb040404fa05fbfcfc0408
fc050406fcfbfb04fbf9fc06
fafb06040504050804fb04fc
fcfc06fc05fc0405040a05fb
fcfc080504fb0605fbfcfbf9
04fcfcfb06fc05fc0905fc0a
fbfcfc04fbfcfaf907fcfb04
fb05fcfc04fc0404fb04fa04
0404fb0504040505fcfc05f9
fcfb05fc050406fa040504fb
05fafbf9fc04fcfc05fbfb04
fcfcfb04f8fbfc0405fc0efa
fb0904fc0406f9f8060bf704
fb050806f809050404fc05fb
fcfc05040506f904fcfbf90c
fa0605fc07fa040406f80a07
fb1805fcfb0a07fbfbfa04f9
0404fb06fbfa0efbf70a0604
0607fc0607fcf9fcfcfc0905
fa0606fb0805fb0607040908
fbfafc0604fcfcfafcfbfc04
04fbfcfb0404fcfc06fcfcfb
04fcfcfcfc05fcfc04090404
05fb06fc08fcfcfc050704fb
fbfc07040b09fbfbf6fb0411
fcf9fcfa0a0e0808f9fb05fb
fcfafcfb05080607f804fc05
fbfafbfb0409fc060404fc09
04fcfafb04f706fcfc06fb04
fbfb0cfb04070efc04fc0604
fc06fbfbfc06040604040407
06fafbfbfc04050604fcfb06
06fc04fafafb040404050406
0405040805fcfcfbfbfc0405
04040406fc0507fc06fcfc04
fb04fcfc06f9fcfcfcfc0504
04fc050405fc04fc04faf5f9
fcf9f5fc05fbfcfc04040404
f8fcfc06fbfcfbfc0405fbfc
fcfc040504f806fbfcfbfbfc
0406fbfafcf80504070afbfc
11fafb04fc0807050704f806
04fbf912f9f9fbfc0dfc04f9
f8060405fbfc07fafcfc05f8
0a04fc040604fc0708060404
05fc05f5fc0704050c110804
04f917f705fafb0604fa0404
04fc050c04fb0507fcfcfc06
fa09fcfbfcfbfcfb040406fc
04fc04050404fbfcfcfc0906
f8040406fcf6fcf905070406
fb15f9fc0404fa05fa0504fb
fcfbfbfc060afcfcfbfafb05
fcfc05fc04fb0afbf90405fb
060d04fcfcfbfc07fbfbfb04
fc06fcf9fb05faf907fa18fb
fbfcf8f9fcf9f80508fb0604
04f8fc0cfa07f91df7fcfa04
f80504fc0bfcfb0c04f9faf8
08faf70806f8f9fbfcfafb08
fcfafbfc0f0504fbfcfcfaf7
fbfafc05fc0905fb0efcfcf8
fcf70bf9043efc0908180408
f8fbfcf9f713f606fcfbf9fb
fcf504fafc05fcfb04fa0f0c
fbfbfc0607fbf6fcf5fbfcfa
0dfb04fbfcfbf905fb09fa0c
fcfcfbfa05fcfbfc05fa05fc
fbfb0404fc0904fcfcfcfcfa
04fafa05fc0505fc130b05fc
f7fafcfafb0504fbfc0404fb
fcfb0504050406fcf804fbfa
05f904fbfcfbfc0505040404
fc040504060404fcfcf9fc05
050afb0404fc05fc04fcfcfc
fc0405fcfc04fc060bfb0405
fcf8fcfc04fc040504fb0404
0704fc0506fcfbfc05060504
04fcfbfbfcfbfa0405fcfbfc
06050805fc0504fc04fcfc04
0506fb06040504fc050908fc
fc0408fb050d04050afcfbfb
fc040405050404fc0704fcfc
07fcfc05fcfcfc0705fb04fa
fafcfc05fb05fc06fc04fc0c
051cfbfb060afb09fc06fc04
fbfcfbfc04fc05fbfc0904fa
04fcfb04fcfcfc06fc04040a
040605fc04fc0406fc04fcfc
fcfbfcfc040404fc04050504
fc06fcfc05fc06fc04fbfcfc
fcfb04fb22fb04fcfcfbfc04
fcfbfbfcfbfcfc07040d04fc
fcfcfc040404fcfbfb040404
fc040504fc06fb0405fbfcfc
05fafc040404fbfbfbfc0404
fb06050805fb04fbfbfc0704
fb040604040406050506fc04
04fcfcfc05fcfb0504faf904
0bfc04fb040607fbfcfbfbfc
fbfcfc0404fcfb05fc0804fc
f904fcfbf9faf907fa0bfbfa
f9fcfafc0506fbfcfbfbfafa
05fa06fcfafcfafb310707fc
360af8fcf7fc4a0806fc06fc
f9080afb05fa170cfbfc06fc
fb0c070406fa0707fcfc06fb
fbfcfbfafcfbfb04fc040407
040405fbfc04fc0b0405fb04
fcfc040a0404fcfc04fc04fb
050706fb0b04fafcfc06fc04
fcfc04fbfb04fbfc04fb0404
05fc040504fcfc050404fcfc
fcfcfcfcfbfb05fafbfcfc05
08fb1afaf912fbfc040d0404
fb04fcfc040404f904fcfc05
fc0404fb0404040504fafb05
fb0604fc0404fc04fc04fcfc
fcfbfbfbfcfc04fcfcfcfcfb
04fcfc0505fbfcfcfa05fcfc
fc04040809fb060707040604
fb04fbfbf9fbfcfb0605fc04
fc0404fc05fb05fcfc04fc04
fcfbf9fc05fcfbfbfcfc05fc
fc0805fc04fc06fcf9fc04fa
05fc05080705fc0405090efc
0608fcf904fc0707050a0b04
090708fc080406fcfb0c0606
fa05fb0605fafc14fb07fc0a
04fcfb0406050505060b050a
f8fcfafcfcfa04fafc0604fc
fcfc040504fc05fa04050406
050804fb04fc04fcfb040506
fcfc04faf9fcfafcfb040406
fafb04fb040505fafcfcfcfc
05fc07faf8fcfcf8fcfb04fb
0504fcfc060406fcfc0604fb
0604070604fcfafb0404fc08
04fc04fcfc04050404fbfcfc
0606fb04fa04fc0605070504
050407fc0406fc05fcfcfc09
fbfbfcfcfcfcfb070606fc05
fcfcf9fbfc040604fc0606fc
fcfcfcfc0405fc04fcfb04fa
04fbfcfafbfafcfcfcfa0404
0504050405040504040405fc
fbfbfcfc040404fc04fc0508
fcfc0404fc0405fc040404fb
040404fc04050406050404fc
04fbfcfcfc0405fc0404fcfc
04fb050405fc04fb0506fb04
04050404fcfc0604040504fc
fbfa05040404fc050405fbfc
fc04fc0e07fa04fcfb04fc06
fb09fcfc04fbfc0a05070605
fcfcfc0505fa05fbfc07fc09
0704f8100904fcf90406fc04
fbfc04fafaf8fb0c06fafbfc
fbfb05f9fcfcfbfcf8fc08f9
040904fcfb04fafaf9fbfcf9
060c060508fcfafcfbfa05f9
fc0bf9040afbfc070dfb07fc
0efafb05fcfcf8fcf9fbf6fc
fbf70406fbfc0607071af904
fafc0805fc09fc0cfcfcfc04
fcf8fbfc06f704fc08fcf9fc
05fcfcfbfbfcfafc0604fa04
fafcfb070e0606fc06fcfbfc
0705fcfafcfb0606fc06fb0f
060504f9fcf705090404fc04
09fb0404f80605fcfc04fcf9
04fbfc0604fc0605070408fc
fa0404fcfc04050708fc0604
fa0507fafafbfc05f7060606
fa05fbfafc04fcfcfbf8fafb
f9fafb09fcfbf9fbfcf8fcfc
fc0af9fc09070408fbf8fcfa
fbf8f9fb0afc0510fcfa0805
08fcfc04f9fc06fcf904f5fb
0b06f90cfcfb0a0afa06fc04
05f7fcfb0dfbfbfc05fb0cfb
fbfcfc0406fcfbfcfbfbfafc
080b04fbfcfbfc0404fc0604
04070404fc0605fc06fc05fa
04fafb0506faf9fc04090405
fbfc0a09fa04fcfc040505fa
fafcfc040409fcfc07fb0509
0afcfc0404040605fcfc06fc
fbfafbf8fc07fbfafb07fc06
fbfafbfb0bf9fbfc05fb06fa
fcfc0b08fbfa07fc060df80c
fc05fb05f8fb04fc05fa04fc
08fc0bfcfafcfb05fbfaf904
fcfafb06fa0bfbfc07fc09fc
fc05fcfcfbfb050406fcfc05
07fc0f05fc07fc04fc0507fc
0506fc04fc040506fcfb0605
06fc04fc0405fcfc07050704
fcfc06040504fc0706fc05fc
fcfcfc0505fb040505fc05fc
fbfc050505050504fc040408
fcfb04050404fbfc06fcfb04
05fc04fc040605fc040406fa
0409fb04060405fc0405fcfc
fb0605fc04fb07fafc04fbfb
0405fc06fcfcfcfc0606fc06
040404fc040405060504fc04
fc05090606fc05fc0607fc04
0405fcf904fc040404fb0404
05fc0505fcfc060404fc0404
050404fcf8fc0404fcfb0404
fbfc06040404fa0505040405
04fcfc06fb05fc050405fafc
05f9fc06fb0504f604fafc05
04fb04fcfb05fc04fc0404fc
05fc04fcfcfb0404fcfc04f8
05fc04fb0504060405040504
fc040804fb0505040504fb04
0405fafc0505040605fc05fc
fcfc06fc0404040404fc04fc
fc0404fc04fcfcfc0604fc04
fcfc0505fcfcfcfbf7fc0404
0404040404fcfa05fcfc05fc
fa0404fbf9f9fcfbfcfcfc04
fcfb06fc04fcfbfcfcfcfafb
fcfcfcfcfbf3fa04fc04fbfc
fbfafbfc04fc04fbfa0404fc
fc05f8fcfcfcfb04fbfcfbfb
fcfbfc05fb04fcfcfbfbfb04
fafb04fcfcfc0504fc05fbfb
fcfb050406fcfb05fc04fc04
05fcfb0408fcfb05fc04fcfc
fbfafc0405fc0506fbfcfc04
fc04fc0404fc040405fcfb04
0504fc05fcfc05fb04040704
fcfc04fb0505fc0404fcfc04
fb04fc04fc040504040704f8
fb04040404fafb05fbfc0404
04fb0405f9fa04fc05fc04fb
fcfb040407fcfc0404fcfc04
f404fafc0604fa05fc040407
fa0405fc040405fc07fb0404
05fbfb07050404fcfc04fafa
fbfc04fc04f8070504fc04fc
05fc04fb07040405fcfb04fc
04060404040504fc07050404
06fb040a04040406fc04fc04
0505050afcfa070405fb0404
070407fb05fc090406fbfc05
050404040405040705fcfc04
0504fcfcfc0405fb07050404
fbfcfc0504040704fb070504
fcfa050504fb040505050404
06050604fc070405fc060504
fcfc0504fbfc040404040404
fb0404fbfcfcfc05fc05fbfc
fcfcfc04fcfcfc0405fc0605
05fc04fc04fc07fc04fbfc06
fcfcfcfafc04070405040404
07040706fb04fcfcfc05fcfb
fc04070afb04fbfcfcfcfc05
fcfbfb060d07fcfa050507fc
0608f909fbf6f904f80705fc
06fb06fc04f905fc0405fbfc
fbfc0604fcfb05fcfa0504fb
04fc040604040b060404fbfc
06f706fc0805fcfb07050604
0704fc070407fb0404fbfa04
040404fa0405fb0406fbfa04
04fcfcfcfcfc06fcfc06fcfa
0a04fcfcfb07040a04fcfcfc
fbfc0afcfcfc070606050405
fcfbfbfb06fbfc05fc060405
07fc040404fcfcfa07fc0506
0604050404fb040a0405fc04
0404fc050405fc0607040505
04fcfc040506fc04040404fc
fc06060607fc0404fb040406
fcfb05fb040508fa05fcfc04
04fcfa06050504fcfc060408
06fb04fc04fbfcfcfc0405fb
06fbfcfbfc05040506fa0605
07fb0404fc07fa06fb0804fc
05fb06fc04fb04fcfbfc0404
0404fc060404fb080704fc05
0504fbfb06fc0604fb0406fc
07fbfcfcfcfc0405040405fc
040404fc0406fb04fc040404
fc04fc05fbfbfcfc04fcfb05
fcfcfbfa0505fc04fcfa04fc
fcfb05fcfc0505fb04fc07fa
05080404fcfbfc0404fb0505
0507090504040405040504fb
fcfcfbfbf9fcfcfbfb040505
fb04fcfc04fcfcf704fb0404
fa0605fcfb0406fbfcfc04fc
fcfbfbf50605fcfb06fbfafc
04fa080404fafcfcfbfcfbfc
0404fbfcfc05fc04fafcfcf7
fc0504fc06fc08f9fb0604fc
08f904fcfc04fc0704fafc06
070608fcfbfcfcfcf8040505
0405080404fcfc0505fc0b07
fc0a0afc04fb05f805fc040c
fc05fb08fb07090606040404
fcfa05fcf9fcfcfa04fcf804
05fcfcfcfc04fc0404fb04fc
fcfcfc0404fa04fc0606fc04
07fb05fcfafbfcfcfcf60404
07fbfb07050405fcfc04f9fa
0407fcfa04f90605fbfbfcfa
0404fb050404050504040405
0404fc06060407050d040407
fcfc0604f904fc0708050504
fcfb05fcfcfcfcfc0404fc06
0504fcfc04f8fb0404fcfc04
fcfcfcfcfc04fafcfc04fc05
fb04fcfc0404fcfc04fc05fc
070404fcfc07fc04fc050504
f904fc04fcfcfcfc04fb05fc
04040406fcfcfb040504fcfc
fc04fc070405fb04fbfc04fc
fbfb07fc0505fcfcfc06f6fc
04060504fc0b04fcfc06fa04
0afc04040604f5fc04fcfc07
fcfc0404040404fbfafb06fc
04fbfb040604fbfbfc0504fc
fb05fcfc05fc05fcfb04fc05
fa05fc07040407fcfbfc0804
07fc040406fb05f80604fc06
fcfcfc05fcfbfcfc04fbfc05
fc04fc05f90404fbfcfcfb05
060404fcf9f8fc05faf9fbf9
f804fc0404f9f9fcfcfb04fb
f804f9fa04fcfcfb04040504
04fb0406fcf9fb04f8fcfbf8
fc04fa0404f904fa04fcfcfc
fafbfbfb04fafaf9fbfafcfb
050404fa040406f8fafc04fc
04fc0404fb06fcfa04fcfc05
f4f4f9fc040404f7f3fcf804
04fbfa08fcfb04fcfafcfc06
050404fc0604fc0407f505f9
040606050604070405f70804
f907fc04f9fa05fb04f60405
fb050404f505040404fb04fb
f905fcf505fa0504f504fbf2
fc04fafafc04fbfc0404fcfb
04fbfcfcf60406f904040504
fcf904fbf5fb04f704fafb04
fbfcfa05f9fb0404fc0404f9
04f9f6fcf9f604050504fbfb
070509fc04f6fbfb08fbfb05
f9f8040804fc04fc04f70504
f407fc060805fcfafcf8fcfc
05fcfbfb04fb04fcf9faf7fa
05fcfcfc05fcfcfbf8fcfa04
060405fc05fbf9fcf6fb06fc
fafcfb04f9fb04f9fcfc0507
fcfb0406fc05060604070506
0506f7fcf9fc0705fcf704fb
f904fc05fc05fcfb04fbfcfc
080407fc080407fcfb050609
0506050404fc0404fafcf805
fcf505fcfa05fcfafcfc09fc
05fcfc0607f804fc05fb0504
06fb04fbf9fcfa0cfb040505
fafcfcf30904fbf804fc0507
0404fc0904fa050404fafcfc
05040506050404fcfb090bf6
040404fcfbfcfcfcfc0608fb
04f90406fc0405fcfcf604fa
f60605fc0404fcf904070506
0404fb040404fcfc0404fcfc
07fbfcf80504040b0405fcfc
fc06fcfbfc04faf4040705fc
04fb05fcf90efcfc0504fa06
0404fc0406fbfc06faf705fc
040404fc040504fcfcfc0c04
fcf9fafbfcfb050505fc04fc
09fc07fc04f9fb0604fc0506
0404f9050404fcfc05fc08fb
fcfc05fcfb0606fc04fcfc04
fc04070509fc0504fcfcfa04
040404fcfcfcfa0405fc05fc
fcfcfcf8fbfcfafafb0805fc
fcfcfcf7050505fbfc040405
fc05fc0406fc0505f904fcfc
fcfafcfc04050404fb05fcfc
f60afb040407fbfcfcfbfcfc
fcf9fc04fc06fafb05fbfafc
08fafcfcfcfc1305fcfc0404
fa09fb04fb050afc1204fbfb
05fc04fafb0cf705fa040505
f404fa04040705fbfaf8fcf2
f9fb0e040cfa06f3fcf6fcfb
04fcf80905fafaf9070a070c
fb04fb06f9eff9f707050dfb
fc06fafafb090cf9fafafc0a
041bfc04fcf4fc13f807fcfb
0505fbfa11fc04f605040806
04120405fa0806fcfbf9fcfb
fceffb0e04fbfc04fcfa0508
f90405fb06f9fcfc04fc09fc
fbfb0707fc06060afcfafcfa
fcfc04fbf9fa090504fb0504
0705fc05050408fa04fc0c08
060608040806fcf8fcfcfafc
08fc0d12f9fb0df90c05fbfb
f70704fa060806090704fa04
f90907fbf907fa04fcfbfafa
04040910090e04f805fcfb07
fcfbfbfc06070904fcfc05fc
04fc0804fcfbfc0405fcfbfb
040806fcf80404fc0406fc04
0405fcfafc050405fc0404fa
fafbfafcfa0406050605fc07
fc04f8fb05040707060704fc
fcfbfc0604040805fb09fb06
0605fc04fbf9fc04040604fb
fc07040804fc040504fc07fc
0afa0507fcfa040504fbfb05
0404fc04fb0404fc06040607
040505040404050405fa0506
07fafcfc050609fc04040404
fa04fc04fcfb04fbfcfcfb07
04fbfcfcfcfc0404070404fc
06fc0404fa04fc0604fcfcfb
04fbfc06f90ef904f8fb0604
fc04fb040704040704fbfcfa
fcfafafaf706f9fcf806faf8
fa04fb06fcfbfc0407fbfc0a
0cfafcfcfcf9f706f7fa04fc
06f805fbfa04040b0707fcfa
040604fcfcfc050605fb09fc
fcfb0404fbfcfc04fbfbfb05
fa0704040404fc04f9f9fc04
fcf9fbfcfcfb06fc0906fafc
fbfc0405fc04fc06fc04fcfc
f805f906fcfcfbfc0604fcfc
060505fcfa16fb04f807fb0f
fafa04f9fbfbf9fcfc09fb05
fc04fafc060609fc07fcfb09
04fcfcf80cfbfb07fafb04fb
040a0407fafbfb0806f7fcfb
fbfbfa040afa0804fc08fcf9
fcfc08fcfc0505fa04f4fc08
fc040404060405fcfcfb0407
fc0604fcfcfb0406fbfafbfc
040404fbfcfcf8fcfbfc06fb
040405fc0404fcfcfcfb04fc
fc0504fc0404fc0504fcfc04
fbfcfc04fbfbfbf90405fcfb
fcfcfa0505fcfcfc0604fb08
070506fc05fcfc05050406fc
fc0a04fcfc0504fc05fcfc05
04fcfbfb07fbfb040709fcfb
05fc0604fafbfcfcfc040504
04fc04fcfcfcfb0405fc05fc
fc0404040405040406fc0404
050504fc04fbfbfc05fcfc04
fb0404050605060406050405
fc050404fcfc04fcfc040404
040afc04fbfb0504fc060405
fc04fcfc05040705fc050404
050404fc06040404fc040404
fbfafb04040504fc04050605
fc04fc05fbfbfc04fbfc0405
05f8fc04060604fb06fb05fc
0604fc070408fc04fc040506
fb05fbfcfcfb04fc05fc05fa
fa05fa0706fafcfcfcfa0404
fb050604fc0407fa04fc04fb
07f80507fbfbfcfc0907fbfc
fcfbfc04fcfc050606fc0707
fbfcfcfc04fcfcfcfafbfc04
fcfc040604fc0605fc0604fb
0505fbfafafa0405fcfb05fa
fc06fcfcf908f8fa040609fb
0405fc08fbfbfb04fb07fcf8
fcfafcfc0a0807fcfc0b06fc
05080405fc05fb0504fc05f8
0606fb09fc0508fafa07f9fc
fcfcfafb07fcf90707f6fbf9
04f8fb05040b08fcfcfcf505
06fa07fb04fafcf804fb05fc
f9070ffbfbfcfb0504fcfc08
f9fb0509fbfafbfb10060d08
0405fbfcfc04fb040404fb06
06f9fcfb0505fc04fa050804
05fafc06fbfcf8fcfb04fcfb
fcfc0406fcfc0404fcfbfbfb
060406fcf9fc06fcfc050a05
0504fcfa040805fcfafbf904
04fb05fafbfc04fc06fb08fb
fc070807040404fbfbfbfc04
050705fcf9040505fc04f905
0404f8fafc07f9fcfc04fcfa
08fc06fafcfbfbfc05fcfc05
f904fcfc0409050afc0507fa
fa0405fcfcfc06fcfc06fc04
0408fafb04fc07fcfafb0604
fbfcfa0406fcfbfcfbfc04fb
fcfc04050404fc0505040606
05fc0404050404fc04040604
0c04fcfbfcfc06fc060bfc04
fb040505fc05fbfa04fb05fb
fcfbfa06f7fb040605fcfcfc
040afbfc07040d0504fcfbf8
050709fbfc0505fc04fa0708
fbfc04fcfc070604fbfb05fb
f80405040404040606fc0404
04fc0407fc04fc04040505fa
fc040604fb07060405fcf906
fc040805fcfcf9fb05fb0405
0407fc04fcfcfcfbfc06fcfc
fcfa05fc05fcfc050408fc05
f8f9fcfb04fcf40a0404fa05
0cfc0606fbfbfafc04060706
2afcf9fb04fcfcfc070afcfc
f904f80b090404fafc05fb06
fc0cfc05fafbfc04fb05fb06
fcf8fcfc07fa060404060607
fcfbfa040409fbfa07fcfafb
fc07fb05fcf9040604f9fc08
0604fcf7fbfc06fc061406fa
1004fcfc050504fc04090405
fcfb05fbfcfb06fc0b080505
fcfcfcfcfcfa04fafcfb0504
fc04fc04fcfafc04fbfcfc04
0416fcfcfbfc04050bfbfcfc
fbfcfc06fbfc05fb05fbfafc
fcfc04fb04fc0704fcfb04fb
fcfbfcfcfcfc0bfb04fb06fa
040406fcfafa05fbfcfcfc04
04fc04fc0605040404fc0506
0405fc0404fc04fc0504fc04
06fc05fc07040d0504fb0404
0405040704040504040504fc
04fc0409fc06040404fb0605
05fc0404040704050404fcfc
fc0504fbfbfc05f9fb050404
05080504fb07fbfafa0508fc
fc080a06fcfc05fafbfc04fa
07fbfafa04fc0efb04faf6fc
fa0afcfcf9fc0407fcfc0a07
06050406fa060915fc04fc07
fcfaf5fa090504fcfa0706fc
05fc06fcfcfc0b07fa0508f9
080404fafcfafb04fb06fcfc
fc0407fc06050404fc05fbfb
0404fc04fc0afafbfbfcfa06
fc06fbfcfc04fbfcfbf8fcfc
040404fa0405f80a06fbfc07
04fbfafcfb08fa0406fc050e
fb0509fcfafc07fafa05fb04
fc050604fb09fc11fb07f6f1
fcfafafbfcf5f7fc070504fa
05fa17fbfbfc07fa0afbf9fb
f907fa07fa0b0efb0b05f907
f2fc05fafbfcfb07fa0bfb0c
fcf7fc1806fcf3f9f6fcf416
07fcfcfafcf6f9fbfaf9f704
0efc0505fcf9fc0406fcfafa
fb04fc04fc050c0404fc04fb
040404f8fc0804fcf8fcfbfc
f9fb0404fa04fc050afc11fa
04fcfbfb04fb0504fb040608
06f706fbf90604fafb04fa05
0604f704040404fc06090506
fbfc07fc09f605fc07040806
fbfafcfc1404f804fb040404
04fcfcfc0507fcfc06fafcfc
0404fa05fc0407040404fa04
04040404fc09fcfc08fb05fb
0504f8080a0904fc04fc05fb
fc0505040a04f90704f709f9
0904fa05fcfb07fbfa08f9fb
040405fcfc04fcfc06fc0506
fc0408fc040504fcfc040506
fcfcfa09fb040b05fcfc06fb
07fcfb0408fc07fcfbfb06fc
f5f6fa050605fcfc04060604
0705f70904fcfbf5f90512fb
05fc060505fafcfcfcfcfc04
05fcfc04fc06fbfb04fcfb07
04fc04fcfb05fb06fc060805
0404fb0afc04fcfb04040409
05fbf9040404fc04070afcfc
0405040407fc05fbfcfcfb05
fcfc04050504040404fcfc05
04fb04fbfcfb05fb0505f905
fc0505040505fa04fcfcfc05
fc05050404050404040606fb
0504fb04fb0504fc04fb07fc
08fcfbfbfc0704fcfcfcfc04
05f90507fcfc0409fcfcfbf8
fcfc04fcfcfa08fc04fcfc05
fc05fa0404fc0804fb0405fa
05fcfb04fcfbfb0505fc06fc
04fcfcfcfc040406fc0604fc
fb0505040405040504050804
0404fb0405050504fcfcfc04
0405fc05040405fc05040604
fbfb040405fb04fc0404fb04
06fbfbfc0404fcfcfcfb04fc
fcfcfcfb04fc0606040704fc
05fc040404050404fcfc0404
fcfc04fc0506fc06fbfcfcfb
05f906fc0504fcfcfc0604fc
fb04f9fc0607080704fcfbfc
fafc0404fcfc0604fcfc04fb
04070504040afbfbfc07fcf6
05fcfcfb050404fcfcfcfbfc
05fcfcfcfc05fc040407fcfc
fc05040404fbfcfc0405fcfc
040404fc05fcfbfcfcfc04fc
fcfc04fc0705fcfc0405fc05
fcfb05fcfcfb05fc05050404
fcfcfc05050404fc04fc04fc
0404fbfb040404050504fcfc
fc0704fbfc040404fc05fcfc
fb04fcfcfb09fcfafc06fbfc
fafcfc0604040404f704fc07
fc04fc0404fc0404fc0505fb
040405fcfc0406fc04fc0404
0504fb0404fcfcfc04fc0404
04fc0404fcfcfc04fcfcfc04
0a05fcfc0404fc04fcfafcfc
fafbfb06fcfc040505050408
fcfc060505fcfc0406040405
0704fcfa0606fcfcfc04fc08
fcfc040504fcfbfc0407fbfc
fa0508fcfcfcfb06fa050705
040704070bf7faf904fc0404
050407fcfc06fc0f05fb0709
040a0bfb040b07fc0404050b
07070405fc0505fc05040404
07fc04fb0404050404fc0504
fbfc060604fc0405fbfb04fc
fbfcfc05fc0704fa05fb0404
04fbfbfb06fafc050404fcfc
fbfbfc04fcfc05fafc0405fa
fcfafbfafb06fbfcfbfbfc06
06faf8fb050507fcfcfa06fc
05fafafc04fb0afafcf9fbfc
0404f80404040efa04fbf8f7
06fcf90709fbfb06fa050afb
040412fb040714fc08fcfb05
04fc040404fb060605040506
fc06fbfafcfb0408fcfcfcfc
fbfb04fcfa04fcfbfcfa05fc
fc05fcf907fcfcfafcfcfafb
0505fafbf9fc05f7fbfcfb07
04fbfafbf7fcfcfa050405fc
fcfcfcfc0404fb050406fbfc
06fc04fb04fafc0505040806
06fbfbfcf904fcfcfcfb0405
040405050404fbfb04090504
04fcfcfc05fc060804fc0405
fc0604fc0505040404050404
fb08050404fc0404060406fb
050404040405050505080504
0704fc040404050506040604
04fa04fc05fcfcfbfc08fc04
fb0404fcfcfcfcf9fb07fbfc
040504fb0404040407060504
fc06fbfcfcfc05fcfafc0504
fc04040404fb04050405fcfa
fc0504fcfb0404fc040404fc
05fcf7fc07fbfc04fcfb0405
0504fcfc07fcfc06060505fb
fb04fc04fc07fa0408fc04fb
04fb06fcfb05050708040605
04fb0407fc04fc040404fc05
fb0406fc04fc04fcfc06fc04
fbfc0508fa05fb08fcfcfc04
04fbfafc04fcfcfbfc05f6fb
05060506f8fafb0404f9fbfc
0405f9fbfc05fcfc070a0404
fcfbfcfc0af804fafbfcfb05
fbfcfbfc08fbfbfcf90c040b
0905050bfcf9fc04f9fbfb05
04fb05fa040c0b0afcfc0406
fbfafc08050406f8fc050808
0404fc05fbfc0a04fcfcfcfc
04fc0504fc04040705fbfcfc
04fa05fafbfbfc07fcfafcfc
fa0407fc0504fafcf90604fc
f809fcfcfbf80704fcfcfbfb
09fcfb06fc08fc06fbfc10fa
04fcfc0504fbfcfcfb0e0504
0404fc07f9fb04fb05040406
0605f7fafbfbfcfc040c0efc
fb0604fbfc050a07fafc0405
fc07fcfbf8fcfa09fcfa07fc
0dfbf8f90408fcfbfcfcfb06
07050cfc0b04fa060904fafc
110ff605fb060e0804f90f0a
0e0504fc04fafc07fcfbfbfb
07fbfcfc0c0b07fb040bfcfc
06fcfcfa060504070405fcfa
07fcfcfb040406fc04fb0607
06fcfa0908fcf90404fb05f7
f8fc04fc040507fafbfa07fa
040506fbf80404fcfa08fcfb
0504fc06fcfc0406060504fa
0404fb0a04fc07fbfcfcfc05
fbfcfa08f704fb04fbfbfbfc
0406fc05fcfcfb060405fcf9
06fbfcfcfc0606fc09f90cfc
0506fcfcfcfcf8040404fb06
040404fcfbfc0405fb0505fc
090504f905fcfb0404fc0504
f9040605040404fcf90504fc
fcfb0506fc07fc04fcfcfb05
fcfb04fcfafc06fc0404fb04
fcfbfcfc0404fc0404fc05fc
fc06fcfc040a040405fb06fc
fafcfcfcfcf908fc0604fc07
09fafc0c0806fc07050604fa
09fcfafc0afb04fcfafb05fc
fc08f8040ffb1306fcfbfc05
06040506fc04fcfbfc05fbfb
fc080c0405fbfc08fcfcfcfc
05fc07fcfc0507fbfbfc0404
fc04fc0704060606fa040406
fcfb04fb040cfb06fcfc04fb
0604fcfc0404fa0404fcfc04
04fc04fcfcfcfcfc05fcfcfc
080405fbfcfcfbfcfcfcfb04
fc0a0404fcfc05fbfcfc04fc
04fcf8fcfbfcfbfcfc04fa05
04fc04fafc0f0705080407fc
fcfbfbfbfc06fbfc05fbfafb
fc0dfa13fc0706f9fc050d04
fcfbfcfb08fb04fb0af704fc
fc05fbfbfb06fc060504fbfc
04fb04fb0bfb0604fc06fc04
06fc05fc05fc06040404fcfc
fc04040505050705fc04fc07
04fbfb05040504fb04fc0504
fc04fc04fb05fb06040afb08
0404fbfc09fcfc0405fc0404
0604fcfc06040404fcfcfcfc
fc04fa070b05fc0409fcfcfc
fcf8fc050505fc060606fc04
05f9f8fbf104fc04fb04fcfb
0404fc05fc05fcfb0605fc04
fcf704050407130606040406
f5ed04faf806040505fcf7f8
07faf9fbef0404fcf7eef904
04fc0604fc04fc04f8ee04fb
f4e4f9f60404f4e004f40706
fb04fc05faf60404fc050504
0504f7edf9fb060405fc04fc
f8fbfbfc06040505f8f0fcfa
fbfcf804fcfc0404fc06fcfb
04050c0904040bf904fcfcfc
060604fafc0405fc0ffbfc06
fcfcfcfb0404fc04fc05f9f6
0410fafcfcfcfcf8fcf80507
04fafb0505fbfcfcfbfbfc09
f5fb0a0506f9f6fc05fafc05
04fa180604fcfa08fc140bfa
f3fc04fbfaf9fafc04fafc04
0404f7fb06050bf45308fbfb
fc04f90406fc0904fafa04fa
fafafbfbfbfbfb0607fcfbfc
f9f9fcfa04fcfcfcfa04fafb
0706f90404fb040404060404
fcfcfc05fc04fcfcf6fcfaf4
040a0405fcfb040406fbfa04
fb06fc04fbfbfa0606f90606
0406fc0504060907040a0507
fcfcf80404f8fa07040404f9
fafbfc0404fcfa0406050705
05fcfb0405040504fcfcfc05
0afafbfc04fcfc06fcfc0504
fb06040604fcfb0807040504
fb04fc04fcfcfc04fbf90404
fc04040504fc0508fcfcfcfc
0504fbfc04fcfb040904fcfc
04060404fc04fc05fcfc0504
05fbfc04fc0505fcfcfcfc04
fbfcfa070604fc04fbfc0905
fbfc0508fcfc0905050505fc
05f9fcf9fc05fa05f8fcfc05
0f06fc0a04fcfafbf8fc0404
f8fcfc07fc040405fcfcfc05
0704fcf7fcfcfc04fcfcfcfc
fc04fcfc04fcfcfcfafcfcfc
fcfcfc04fc05fb050408fafc
fc06fb09fbfc090906fb0505
fcfafafbf9fcfb05fcfcf8fb
f9fcfcfbfb040404faf90605
05fcf90a09fcfbfb04fc05fa
0405060408fc06fc05fb05fb
0404fbfafc05fbfbfb0607f9
fc0506f411fbf505fcfbfcfc
fafcf8f8fb0b060705fb1104
04fb0807fb040ff8f8f907f9
f7fc08fa07fc051304050604
06f704fcfbf706070709fcf0
0c04f9faf9f4fbfb080507f8
0cfa040c06f30510fcfcfa0c
fb0804fcfb06f9f908050407
08fc09fb0cfbfcfcfc16fcfc
f7fb04fcf8f7fafcfbf2fcf9
fcfb070b0909fbfbf90afc05
0bfb04fb0b06f5fcf7fb0a04
0b0504fa04040e0510fcfbfc
04fc06fc0b04fbfbfbf70704
f7fc05f60cf80bfcf909f8f8
f71007faf9fafbfbfc04fcfb
06f8fafbfa04fc09f6f9fc05
faf8fbfbfa04fb06fc0505fb
0606fb04fb04f9fafbfc0604
05fcfc040606fcf8f90b1009
040405fc0a04fbfc05fbf806
fcf8fc0dfc05fb040efbf90c
04f9fafc0af90405f7fbfa05
fbfcf9fcfbfb040606040cfb
fb07f9fcfb0404f40404fc08
f9fc0604fcfa0506fbf6f906
0404fa0405f9040a05fc09fc
fbf3fcfafcfc05fb05050cfc
fcfaf9f6fc0904fc07f704fc
fb05fbfc04fb0406f9fbfbf9
07fc06f8fc04f3fc04fc0c04
f506fcfa08faf8fcfb0504fb
fbf6f8fc040bfc0705fcfa06
f8fbf704fc040805faf60605
f7070505fc0606fcf9040bf9
05fcf3fcf8f90e070505070c
fc04040406040405fa04fc05
04fbfc0505040504fc04fcfc
040509fc06040507fcfc04fc
0406fcfcfcfcfcfb0504fcfc
050405050405fbfc0405fc07
fcfcfbfcfc0404fcfb0504fb
fcfcfcfcfb0406fc06fc0404
fbfc0604fc05fcfc0405fcfc
04040404fcfcfc04fcfb0605
04050504fc04fcfc04040404
fc05fc04fc040504fcfbfcfc
f9070604fbfb0505fcfc0404
07fc04fcfcfb050404fbfc05
050507060504fb05fa04fbfc
fb0404fc0504fb05fc040404
fcfa07fc08fbfc05fbfcfc04
fcfcfc07fcfcfafcfc060407
f804fbfcfb0905f506fafa05
05fcfafc08fc10fbfa04fc05
fc15fcfcfbfc07fc040408fb
05fb05fb04fc07fc0405fa05
0afafcfaf805fc04fcfa0ffa
fc0806fbfafa07fb0809fb04
04fc050507fc04fcfbfcfcfc
04fc04fbfb07fcfc0404fcfc
04fb06fcfcfcfc04fcfcfbfb
0404fb0804fcfcfc04fcfcfc
05f905fc04fc050404fbfbfc
040408040708fc040506040a
fcfc0f0404fcfcfc0504fc04
fbfbfbfcfc04fafbfcfb0405
04050504fbfcfc04fcfbfc07
fbfcfcfbfcfcfcfc0404fcfc
fc04040504fc05fc0404fc05
fc040604fa04fc04fcfc0404
05f805fc06fc080404040404
07060a0504fc05fbfcfcfc05
04fcfb040407fc0504fcf604
fc04fcfc050404fc04fb04fc
04fcfc04040505fc0404fcfc
0504040504040404040406fc
fc040405fc0404040406fc04
fc04040406fcfc04fc0405fc
0405040404fc06fc04fc0405
fc05040405fc0405040404fc
fcfc040504fc0506fcfcfc04
0505fcfc04fcfcfc0404fc06
fc07fbfb04fc0505040604fc
0406fc040405050404050405
0506fcfcfc060404fcfbfc04
fcfb04fb06fc04fc05fcfb05
060504fc05fc07fcf8fb06fb
0404fcfcfc0507fcfb06fcfb
fc04fb0606040405fc04fcfb
0404fc060505050405060404
fb040704050504fcfc0405fc
04fc05060404fc04060504fc
06040407fc05040404060405
04fc05050604060504fc0407
04050605fc09fc0504070406
fcfcfc050405070505050404
06fcfcfcfc0406fb04fc0606
04fc08fcfbfb0404fb04fc05
fc05fc0407fb05fc04fbfc06
05fcfcfc0604fcfcfcfb08fc
fcfc04fcfc0405fcfcfc0604
0406fcfc0404fc0504fc0507
fcfb0406fcfc0407fbfcfb04
fcfc050704fbfc04fb040405
04050704fbfbfcfc04fb0404
05fcfcfc04fc040605fc0404
fc04fc040405fcfc0405fafb
fc04fafc04f7fcfa04fbfcfc
fbfcfbf904060504fb04fbfc
fbfc05fbfb050405fbfc04fc
06fcfafc0704fc04fc05fcfc
fbfc0704fcfc050506060504
fb04fc04fcfb06fcfcfcfc06
fafc04fb0404050407fbfb04
fcfbfcfcfcfc040505050405
04fcfbfc04040505fbfc0dfa
04fb06080705f8fbfcf908f8
fbfc07fc05fc04f8fc0e04fb
08060404060505fcf9fbfcfc
04fcfbfcfbfcfbfcfafc0404
0508f9fbf906070505fc0504
0404040404fa0406fb070404
fb06040505fcfcfcfcfc06fc
fc05fc04fbfc06fc0406fc06
06fafb040405f9fcfbfafcfa
06fc05fcf90704fc04fcfbfb
fa05fc04fcfc04fbfa0405fc
0404060406050404fb07fcfb
04fcfcfb04fcfb0405fb0404
060704fc04fcfb0404fc05fc
0406040605040404fcfc0604
04fc04fc06fc05fc05fcfbfc
fb0404fcfc0404040405fc04
fbfcfc0704fbfb04fc060bfc
fc05fcfa0705fa0404fc06fc
0708040404fcfb05fc0604fb
0405fcfc07fbfafcfc0406fb
fc040405fcfcfc0504fc0704
fcfcfc050504040404050404
fcfc04fc05fcfc0404fc0504
fb05fcfbfb04fcfc05fbfbfb
fb04fcfc0504fc05fc090405
fc040504fb05fc04fb040404
04fcfc06fc040404fcfc04fc
050505fa05fafcfc050604fc
fc04fbfc070a050405050a06
fa0505040604fc0404fc0504
06fa080506fc04f9fcfcfafc
06fc05040405060afc06040a
fcfb05fc050404fcfb04fc04
fcfc04050704040806fcfcfb
fbfcfcfcfb0404040405fcfc
04fc09fcfcfcfcfc06fc0405
07fbfcfc0407fcfbfcfb05fc
0604040407fcf907fbfc04fb
fcfcfcfbfb040706fc04040c
fcfc06fc05fcfa05070505fc
fc070505f906fc0afbfc06f9
fb0405060506050707070505
05fafc05fc0505fc04fcfcfc
fcfc04040705fc0404fafcfc
0404fcfc05fcfcfb040404fc
fcfcfb04fcfcfb0406fc0407
