003000000005000080000000
000020002000001020008000
800008000000020001800000
200080000100000006000000
01000000a000000000000011
000000000000000000000000
000000040000000000000000
000000000100000020000000
000000000000000080000000
200000000000000020040000
800000000000000000000000
200800801000080000000000
000000052000000090000000
000000000000000000000000
a00000000000800010000000
000000000000000420000000
00000000a000000000000000
000000000000000000000000
000000000000000000000000
000800000000000120000000
000000000000000000000000
000000040000008000000000
000000000008000000000000
000000000000000000000000
84082242c210008288101340
a12cb21202402120e01094a0
82015930118a80005140a000
2a0284b08480024c86008282
01448c00a025829002400110
021000028000193011080080
010041042202808000204248
0549000001009000200482b0
000824098080290382100220
a246a040100080940002a400
0249060200049c3440020405
0a18e5a001008c0f80820806
00021505260881c898800218
40c008560010040200c45c25
b0000408081aa40001000004
00c00c050000011522408148
001aa2008100080408061600
0a0801024004020020128404
000b16810c100c0001004400
2a1804140000820100000804
000045040a08010240000289
00010804000f168008900c00
001000082a18049442208a00
0590040001004400000c0102
050000000000000000040000
000000000000000000008000
800000000000008040008000
200080800000000002000000
010c8000a000800000000012
000000000000000001000080
000000000000000000000000
000000000000000000000000
000000000000000100000000
000000008000000000008000
000000000000008000000000
000080000000000000000000
000000042000100080000001
000000000000000000800000
000000000000000000000000
000000000000000000000000
002000000000000000001000
000000000000000000040000
000010000000000000000000
000000000000000000800000
000000000000000000000000
008000040000100000000000
000000000000000000000000
000000000000000000000000
000000000000000000000000
000000000000000000000000
000000000000000001000000
000000000000a00000000000
212000000000081000000000
000000000000000000000000
000000000000000000000000
000000000100000000000010
000000000000000000000000
010000000000004000000000
000408000000000020000000
040000801400800000000005
202000002100081001000044
000400000000080000000000
010000002000001000000000
000000000020000021008044
000000000000000000000000
000000000000000000000000
000000000000000020000000
040000001280800200000000
000008000000000000000000
000000000000000000000000
000000000000000000000000
000000000000000000000000
000000048000001001040000
008000040024000000000400
012400604200000004084000
0400001c2001824880011031
21202221024d4a9400000004
000102010100404800448009
40240004004084002e800609
0080b00f0920028002420850
1080c2068000000001010204
824280408004000000000002
012508402200000080024041
0400409e9491c00603051031
a02222a003c50836a0042004
120f9607048c0c4420008021
414220450242000082000080
a000b0011120001807088054
102040020080000000000084
020800400004000000000000
1004006e2000000008004001
0410000694a0880210000000
2c01086000c10a4080040400
008006079e00006001000020
00660021561a04208000000f
010080508180100000000800
000080000000000000000000
000000000000000000000000
000400000000000000000000
000000000000800000000000
002000000000020000000002
000200000000000020040000
000000020000000000200000
200400000020000000000000
000000000000000000000000
010000000000004000000000
000400002204000000200010
000008909580d00040000001
002202104140001001000002
000200010000000020040000
0100000300000210000000a0
208480040022001001000040
000000000000080000040000
000000000000000000000000
000400000004000000000000
040000000000800608000001
0020000c4800000000000002
000200010000000020040000
000400020000000000000000
000400000000000000000000
000000000000800008000001
080000880800000004000000
000000010080004000000000
000024004018282004008000
00000a000804108828000000
000000080000000000000000
000000000000040000000000
000000000000021000040008
000000000400000000040000
000000010000000400000000
000400000101002000000000
040020821000282004000000
0008020088c0028120000404
0400000000000000000100c8
000004000400000410000000
000000000000020000800008
000000000000000000000000
000000000000000000000000
000000000001008000800000
000000001000000000000000
018000008000000000000400
000000000000000000000080
000000000000000010000000
000000000080020000000000
000020840001006403080008
480480000108000000022010
011808ac8380014000000802
0410349a1112282005814010
0c400a40c84c01a000280004
04000008000400088b9a0d89
022005000408100010120480
002001080000024040040010
440020040000000001080088
882300002108042400004010
001191e40382100808880000
05000897d5a2a82014240101
88c89a41ca620be9804c2434
040100000005002070ae10cf
000c04300418001014120001
000200c90040024008320000
000020080000000000001000
900000800108440400004000
000011600202008800800002
040028d61482a88a04210101
00810b0180c080a400084214
00010000000010000002008e
000c42000608800014200000
010200880000020080100180
000020000000000800000000
000000000008000000000000
001000400000000000010000
000020000000280004000008
00210a100800000020080002
040000080000000001200000
000000000000000000000080
002100000000021000000000
000020000000000000000001
000000000008040600000000
000000410300000000000000
000000800080280006000000
0006020108400000001c2406
040000000000000101000088
000024020000000000100000
000000000002020000000000
000000000000000000000001
000000000000000000000000
000000010000000000000000
000000000004000000000000
000002000000000000000402
000000000000000100000080
000004020000000000000000
000000000000020000000000
000000000000000000000000
000000000000000000000000
040080000000000000000000
000400000000000000000000
080000000080000000000000
000000000000800000000000
000000000004000000040000
000000000000000000000000
000000000000000000000000
000000000000000000000000
040080000000000000000000
020000400080000000040100
280000000000020082000000
000000000000000040000000
000000000000000000040000
000000000000000000000000
000400000000000000000000
000000000000000000000000
000000000000000000000000
020000100000000000000100
000000000000000080000000
000000000000000000100000
000000000000000000000000
000000000000000000000000
00488c0700000681140cc000
000280a22000028904208100
208a08b00210000000880202
0010b35444b8e20508140188
48a842204182b8a040060469
0400904804068040120010b0
0004040d0402121405062400
108000104888000000822082
404f08070a8c030014830200
08042ae0240022a440208250
19860388600c012000104002
e22296605499448d340e1b9a
08e8516b9c450ae08e5a24a5
8404114806044000f110c492
06c42400200202404084a000
91c805144040020488050a00
040ea8018200010100430014
000002020004200402008000
494a00f41080012008000002
44100454a005a18910110513
3e50460e0c818f0282042404
8400050100094010d3188130
82002700000800d00400c001
008080802040030c20010802
000080000000000100000000
000000000000000000100000
200001200200000020000000
001800080088000008020000
280004000100000000020000
040000010000000002000000
000000000000000000000000
000000000000040000000000
000488020000000000010220
000000000200000000000000
008000280000000008800000
800000404081240000040104
08000000a004020082022000
000404000404000041000000
020000400402000040000000
018000000000000080000000
000400000002000000000200
000000000000000000000000
000200080000000000800000
800000500004000000040100
000000040000020080002400
000001000000000000100000
000006000000000000000000
000000002000000000000000
000400000000001000000020
000000000400008000000000
021000004100000400000200
801000021000a00040040010
200000000100020824000000
000000000000080000000000
000000008008000000000000
800000802001000014010208
100400000400000000000840
000000000400008080000000
022200000000000000000020
800000001001800010000010
080000000000100020010020
1081000000002000c0000000
800000008002000000000000
c00040002000000080010004
000400000040000000000040
000000802000000080000000
000200000000000000000002
800000000001000000000000
000100000000000080000000
000000000000000840000000
800000008400000000000000
c00800002001000020800004
8404b00000000014401e0924
110000402040000080d48002
12022842001000c004420620
808c20001000020804040400
380200000042021220402000
040000001200280021000000
018000028008000000000200
400001005001000008000000
10040000040100400010084c
8000004030040004a0004000
122260c26010000000000222
80a0200110d0020806400024
41000921184a1016202c2221
1001000009012820c0002000
210080028002000000100000
800040001001000108080000
801404050801000008040040
004000001204008180000020
001642ce404000000a010022
818000010040420026012000
0001012130021001a0000041
0000000000014000401040c0
a00080428400000004000000
020500802005000000000062
000000010800000020100000
000082000500800200840000
021008000000040000000020
809400001000000010000000
000001020000025824200000
000000000200080001001000
000000008008000000000000
400001004000000000000000
000000001002000000004800
800010002000000080000820
020304280210000000000020
80c404000004000014000000
000008200000100420000020
1001000002010c0000001880
200080028000002000000000
800040100011000100000000
201000800800000000040080
00c000000000000084000c00
000400880000000200010000
808404810020008004000400
0201000000800100a0000000
000000000100000040200080
808000028000000010200000
008000000001000000000000
000000000000000000000000
000020000000000000000000
000000000002000000000000
000000000000000000000000
000000000000200000000000
000000000000000000000000
000000000000000000000000
000000000000000000002000
000000000000000000000000
100400000000200000000000
000000000000020020000000
000000000000000000000000
208000001004200000002000
000000000000000000020200
000000000000000000000000
000000002000000010040000
000000000000000000000000
100000000000000000000000
000000000000000020000000
000000000000000000000000
200000001000000000000000
000000000000000000000000
000000000000000000000000
000000000000000010000000
000000000000000020000000
102020004000000000000000
000000002002080000800002
020000101000002c00000000
008008021060200000000000
000000000000000130000000
080000000000000010000004
000000000080000010202000
000002040000050020000001
102400010400000802000000
2004000101400a0000c00022
020100101000022400000d00
00c000221064200104800008
000009000004000102000200
340000080200020100000205
0000000000c0002210242000
000002000000000000000500
100000000408000800000000
000001000000000000c00020
000008100000020000000000
00c008221040008004082008
800000000000000004000004
040800080000000000000200
0000000000c0002010000000
010000000000000000000400
000020000000000000000000
000004000002000000020000
000000000100000000000000
000200000000200000000000
000000000000040000000000
000400000000000000000000
000002000000000000002000
010002000000000000000400
100020400000000002000000
000004000002220000820000
020000000100020000000100
008000021000204000000000
000000000000040000020200
000400000200000001000200
000000000080000000002040
000000000000000000000000
100020000000000000000000
000000000000000000000000
000000000000000000000000
000000001000200000000000
000000000000000000000000
000400000000000000000000
000000000000000000000000
000400000000000002008000
000000000000020000000000
000000000000000000000040
000000001000200000000000
000000000000000000000000
000000000000000000000000
000000000000000000000000
000000000000000000000000
000000000000000000008000
000000000000000000000000
000000200000000000000040
000000000000200000000000
200000000000000000000800
000000402010000000000000
000008040000000000000000
000000000000420000000000
000480000000000000000000
000000000000000000000000
000000000000000000000000
000000000100800000000000
280000000000000000000000
000000000000000080000000
000000000000000000000000
000010000000000000004000
344502010000500002008000
184002405000008080100040
230020604000000040404240
000802020500220000000010
080000001000000000040080
140a4200208200440000c200
002008000000000200014000
808080944400c00018490840
2085c0010008500802068040
08c00000500220c580100008
301700244000004000c04040
800840808410a00208004010
080042020900388410020824
4f0a56532392296c1010c080
400a0865502a40020c116000
818040800000760008c80290
0184c0810008000c00059048
08c010000012000000108008
428360604100012001004000
001000001582800008000090
0c0000020000041424422104
020a7115430c400080000202
000280400008001025804002
018001220c90400128024604
000000000000000000000000
000000000000000000000000
000000000000000000000000
000000000000200000000000
000000000000000000000002
000000000000000000000000
000000000000000000000000
000000000000000000000000
000000010000002000000000
000000000000008200100000
000000000020200000000040
000000000000000000000010
000004000000100000000006
000000002000000000000400
800208430000000000000000
000004000000620008000000
000080100000000000000000
000000008002000000100000
000000400000040000000100
000010000100000000000000
004001002000000000002000
002000040000002040080400
000000000000100000200000
000844021000010020004000
000020000000000000000000
000000000000000000000000
000000000000000000000000
000000000000200000000000
000000000000000000000000
000000000000000000000000
000001000000000010000000
000000000000000000000000
000400000000000000080000
000000000000000000000000
040000000040000000000000
000000001000000000000100
000000000000000000000080
000000000400000000000080
000000000010800000000000
000080800000080800000000
000080000000000000000000
000000000000000000000000
000000000000000000000000
000000000000000400000000
000000000000000000000000
000000000000000000000000
000000000010400000000000
800080800000000000000000
024000020100080002000004
800400b01080808408000000
820000001461040180801120
400000020640280202001400
008010229000000001040194
144204180008004000000001
018401000030400b06400001
20004c458000002a30001000
044308020d12c00400190300
81160020308480a508082900
0608028024414a0180040020
400080a2060000401d000700
0000102280008220008001a5
36434748004840ea03604283
0084260000b0e10306407a44
2261cac3000a88683811c620
020080020402a00000000000
000488203000012008106000
000002881044000100000020
001080000200204700000124
000010408000002400800000
1007031004e8d0c80240020b
408023000098e10004402300
8262828208080ac18000c220
000000000000000000000000
000000000000000000000000
000000000000000000000000
400000000000000000000000
000000000000000000000000
000000000000004000000000
000000000000000000000000
000000000000000000000000
100000000000000000000000
000000000000000000000000
000000000040000000000000
000000000000000000000000
000000000000000000000080
000001000000004000000000
000000000000c00000000100
000000000000000000000000
000000000000000000000000
000000000000000000000000
000000000000000000000000
000000000000000400000000
000000000000000000000000
000000000000000800000000
000000000000000000000000
000000000000000000000000
000000000000000000000000
000000000000000000000000
000000000000000000000000
000000000000000000000000
000000000000000000000000
000000000000000000000000
000000000000000000000000
000000000000000000000000
000000000000000000000000
000000000000000000000000
000100000000000000000000
000001000000000000000000
000000000006000000000002
000000000000000000000000
000000000000000000000000
000000000000000000000000
000000000000000000004000
000000000000000000000000
000000000000000000000000
000000000000000000000000
000000000000000000000000
000000000000000000000000
000000000000000000000000
000000000000000000000000
0000c0000000000000004200
00098000000c220444010040
0062c00200000000810e0000
404181580080c8000c025030
001603020e61108129082314
040040000200c00224605022
090822000001010800004000
048000208006000000410000
0240ac008040100410004001
20739083202000614401a180
2226e52380a0000840944000
1449219a258988146663503e
618403027f771a032101a664
026250840200c401b8685020
210082600011618a24800040
208840200004030260671081
040020008108000000000104
000000000010000000001408
000281000000000840000040
002095014068084806080004
010000002840188000102800
040800000000010220001800
000000000010440004008840
0002000040000000200000a0
000000000000000000000000
000000000000000000000000
000000000000000000000000
000000000000000000000000
000000000000000000000000
000000000000000000000000
000000000000000000000000
000000000000000000000000
000000000000000000000000
000000000000000000000000
000080000080000000000000
000000000000000000000004
220000000042001000000000
000000000000000000000020
000000000000000000000000
000000000000000000000000
000000000000000000000000
000000000000000000000000
000000000000000000000000
000000000000000000000000
000000000000000000000000
000000000000000000080000
000000000000000000000000
000000000000000000000000
000000000000000000000000
000200000080200000000000
000000000000000000000000
004082000000004000100000
000000008002000000002010
000000000000000000000000
000000000000000000000000
000000000000000000020000
000000400000000000000000
000200000000200000000000
000000880002000020000000
004040000000004000100001
200000000102000000001001
000000000000000000120008
000000000000400000000000
000000080000000000020000
000000000000000000000000
000000008000000000000000
004400000000400000000000
000040000000000020000000
000000000100000080000000
040000000000000000004000
800000000000000000000000
000000080000000000000000
050384024040000010410000
000000000200002000000100
9060202a0003000000000020
0202088001090600454c0044
000208000000000000080022
5040000080404020840b0008
000008200000020000000000
000202000000000080000020
01800642c400201581441220
011a08001004000200001000
854412382002200800900000
03a01014009086c087232605
2a90888309d3180808441183
03820021804010383412202c
000200020028501000000600
209220240814890081cb0028
009206902000a20080401120
010000001804000000002000
804413200012200000000500
00a0601404b0864860000200
0b208dd0a1c3000008060000
600102400840102204120004
080000000000608000200600
011000000222050081810000
040000400100000004000001
000000000204280001001000
800040000010800001000000
000000000080000001300000
210000000000000000002800
011000000000400000100000
080428000000800000000010
028000000000000040000020
040010020100000000450001
400000000044000200000000
014140000210000000000200
020000004820140001302081
200001000100000040410003
052000000000000000100000
00040001000040000a000400
020000000000000040000000
001000010100000000400001
c00000000004200000800000
004500000000000000000000
000000008000040101100000
000000800100004000400002
010000000040000000008000
000000000000400000000000
020000000000000040000000
000000000000000000000000
000000000000000000000000
000000000000000000000000
000000000000000000000000
000000010000000000000000
000000000000000000000000
000000000000000000000000
000000000000000000000000
000000000000000000000000
000000000000000000000000
000000000000000000000000
000000000000000000000000
000000000002000000000000
000000000000000000000000
000000000000000000000000
000000000000000000000000
000000000000000000000000
000000000000000000000000
000000000000000000000000
000000000000000000000000
000000000000000000000000
000000000000000000000000
000000000000000010000000
000000000000000000000000
010094000200000002002000
024000000008000110180900
120020000008140000100001
101809100d11810002004000
009004010661100005280001
000040000200200010001400
052820000008000000000000
000004080010040102000000
018092400200008092003000
60009000000c000038088100
920020090029040902000403
320089000da08b5042000000
4158000370609000400c8402
4200040892042201022b0c00
0008a000000089000f200a10
002b04004000000142201000
044400104488200017081820
20040002a808000904000800
81009000140000200a100401
220019000100001006880000
000004012000804228080009
4008010001001000382300a0
080800010000180000080000
002200a00200000100008000
001000080000000000000000
000000000000000000000000
100000000000040000020000
000010000830000800000000
000204000000000004000010
000000000000000000000400
040000000000000000000008
000004000012040000000000
082000000040000000000000
000000000000000000000000
000000000000040000020400
020091000820101000400000
000204000002000020080002
000000000000000002000400
200000000000100008200000
000004000002040000000000
002000000000000000000000
000000000000000200000000
000010000400040000000000
000010000820120000400000
000000000000010000000002
000000000000000004001420
000000020000000008200000
040004200000000000000100
000000000000000000000000
000000000000000000000000
000000000000000000000000
000400001000000004000000
000000000000000080000000
000000000000000000000000
800000000004000000000000
000000000000000000000000
000400000000000000000000
000000000000008000000000
000400000000000000000002
000000001010000100000000
200100000000000000000080
000000000000400010000000
800001000000000000000000
000000000000000000000000
000000000000000000000000
100000008000000000000000
000002000000000000000000
000000020000000000000000
000000000000000080000000
000000000000000000000000
000000000000000000000080
000000020000000000000000
041098460120024010004811
024000000200a09082002000
84860821150200a001004400
0610221400c2404105040641
1100669806752a9402408c90
0000010000496041b50002a0
000021045494000000808940
20800020000040e002410000
059788078040000994144a01
244002d2a35803918000200b
74f7da0b0110429420410242
20102b187096d785d5499559
3055725134e922c08459afd5
28407044048c0089b9db03b6
0810010d4480001800042880
41800422001002a0214102c0
043080860021000200454000
00000040a01001800c022002
100787140004018001082208
842020904054060a02310000
01020010200a100221900300
2922200110104000a01488c4
29100f008210241a00b42083
500020020008020200408c40
000000000000000000000000
000000000000000000000000
000000002000000000000000
000000000000000000000040
200000000000000002000000
000000000000000000000000
000000000010020000008000
000000022000000000000000
000408000000000000080000
000000000000008000000000
008400000200000000000002
000008000014000000400000
000402400000020000000380
000004000000000810000000
000001000000000000000000
000000020000000000000000
000000810000000000000000
020000000000000008000000
000000000000000000000000
080000000004000000000000
200000000200000000000000
000000000000002000000000
000000000000001000000081
000000020000000202000000
000080000000000000000000
000000000000000000000000
000000280000000000100000
000000000000000040000004
020080000100100000000000
000000000000000001000000
000000000000000000000000
000000000000000000000000
0002c0028000000000000021
000000000000010040008000
008018200100000008108202
600080000800480200000004
08108210290020040001c000
000104040100000001004010
000000400000000008004810
018040000010800021000000
000000020000000000000201
000000000000000000000000
808011200100000008100200
000000003100000220040004
080082100000000000004021
040100000000014021080084
000040010400000000000800
010800000000800000000020
000080000000200000000000
000900140000008004100000
008008080100010008020000
020020000900002840000602
9203805002000014004480b0
000100000100000805001680
004000000a00400008008108
000404000000809006080020
0902d0028040000002040810
82018084000080004a100041
08c11905010002000901029a
eb5000c00920084303030004
0a11a2b0230404940000e080
02010400018009000120a612
01008101ca00004409008910
018400900000829012010024
000280000444000603040a01
02008000000040a00a100001
009018490108088008020211
8a0000021d80008b27040806
0a12821507014010801440e2
2604080601082841411c0804
000040a14a00000000000082
038c088020020811020140a0
002000000000000000000000
000000000000000000000000
000000220000040000000000
000000000060100040020000
010000100000000100004000
000000000000000008000400
000060000000000000200000
000004000000001000000000
002080020002000000000000
000000000000000040000000
000010200000040009000690
400000001420001200200004
090002900200000000104001
000100000000000025040400
000000010000000000200010
210004000100011000000000
000000020020000000000000
020000000000000140000000
880010612004000008100010
000000000410441200260004
081002900000000000044001
042200008800000022040000
080000010000000000104010
220400002010011002000000
000000000000000000000000
000000000000000000000000
000000000000000000000000
000000000000000000000000
000000000000000000200000
000000000000000000000000
000000000000000000000000
000000000000000000000000
000000000000000000000000
000000000000000000000000
000000000000000000800000
000000000000000000000000
000001000000000000200000
000000000000000000000000
000000000000000000000000
000000000000000000000000
000000000000000000000000
000000800000000000000000
000000000000000000000000
000000000000000000000000
000000000000000000000000
000000000000000000000000
000000000000000000000000
000000000000000000000000
010280508108800402086204
d16888000000200108002000
4100206408400408a0100080
8a09250441c2085a45088008
a1525991916808188c312000
210000040082002628040684
043000804000202401600012
00a286800000000210680801
0060088d0002000401404000
014111001000600206000080
404401240400021aa0800000
020024808ba2483c68028004
a40889055b0301400020426e
20022004004200028c04a005
09a020000200008000220009
200000000000000000418c88
020000110100000000480202
004000801020000040002400
0040922c00800c4000000002
218825040a2204b421040400
902241810000010001300026
010004000000000820a80c00
000000000008240000228213
200800000901000100460000
000000000002000000000000
000000000000000000000000
000000000000000000000000
000000000000000000000000
000000000000000004000000
000000000000000020000000
000000000000000000000000
000000000000000000000000
000000000000000000000000
000000000000000000000000
000000000000000020000000
000000000000000000000000
000000000000000000000000
800000000000000000000000
000000000000000000000000
000000000000000000000000
000000000000000000000000
000000000000000000000000
000000000000000000000000
000000000000000000000000
000001000000000000000000
800000000000000000000000
000000000000000000000000
000000000000000000000000
000000000000000000000000
000000000000000000000000
000000000000000000000000
000000000000002000000000
000000001000000000000000
000000000000000000000000
000000000000000000000000
000000000000000000000000
000000000000000000000000
100000000000000000000000
000000000000000000000000
000000000000002000000000
000000001040000002000000
000000000000000000000000
040000000000000000000000
000000000000000010000000
000000000000000000000000
000000000000000000000000
000000000000000000000000
000000000000000000000000
000000000000000000000000
000000000000000000000000
000000000000000000000000
000000000000000000000000
000000000000000000000020
000200000008000000000080
000180000100000000000000
800000000000002000000400
00c00a091062000000080000
000000000000000020000000
000000000000000000000000
000000000040000810420000
000004000000000000000000
114102800208000000000000
9000011000c6000000c00800
080018020000043800000000
01d0ca6910c3208006084010
080000288000221004a60280
040c00900000081000000000
000202000040004010c20000
000000040000000000020100
104100a00000200002000000
200000000000008000000000
000200010008001440000010
00000022110022a000006400
480000200000000004000200
000004800000000000000000
000000000000090001002200
000000000000000000000000
000000000000000000000000
000000000000000000000000
000000000000000000000000
000000000000000000000000
000000000000000000000000
000000000000040000000000
000000000000000010000000
000000000000000000000000
100000000000000000000000
000000000000000000000000
000000000800000000000000
000000001040000002000000
0000000000000000000c0000
040000000000000000000000
000800002000000010000000
000000000000000000000000
000000000000000000000000
000000000000000000000000
000000000000000000000000
000000000000020000000000
000000000000000000000004
000000000000000000000000
000000000000000000000000
000000000000000140040000
000000100000000400000000
400400000000800020000000
000000000000000000000001
040000000000001001000004
000000010000000000000000
010000000000000000000000
000000000000000000000000
000000000000000100040100
000000000100000000000000
001401000000800000000000
000000008000002020000001
040800000000000001000000
200000000004000000000000
000000000000000000000000
000000000000000000000000
000000000000000100040100
000000000000000000000008
000001000000000000000000
000000000000000000000001
000000000000000000000000
000000000000000200000000
000000000000000000000000
000000000000000000000000
898040041a00000141040087
160808504100002c05081102
400001c71200a00000090001
00f090800f04c1141b801021
450d40051608885045220024
0a800030000000010200a008
810200000818800402040104
000000004440400002000000
810502143300010f01152186
521808505146001401008042
001521850200a100c40803c0
00d010808309a3b423100025
c50c49404200004005600010
220000040004210022002000
012000000410020402000206
000080004400000062000000
80d002060000050000042100
420400100020001013100408
000020800002880000020004
028244000008922421120000
004001044000001001020000
a08004010008000000020824
000040000002000000001004
000088000042100000000010
800000000002000141040005
000800100000000440000000
400000050004800000080000
000000000402400000020001
040000000208081000040004
000000000000000000008000
800000000000000000000000
008000000000000000000000
800000000002000101140104
000000000100001400008000
001401040004800000000000
00000000800000a020020001
000801000200884001400000
200200000000000000048000
000000000000000000000000
000000000000000000000000
800000000002000008040100
000000000000001000000008
080001020000800000000000
000000008000000020020000
000000000000000000000000
000000000000000200040000
000000000000000000000000
000000000000000000000000
000000010000000000000900
000400000000000100008000
000008000000002000000040
300010800000000902280000
002c0010200600c000101029
040000000000080008100010
001000000000000000000000
000000000000000000440000
000000091024400000000001
08400000001810410000b000
800028434809000009000054
300234c004100209162c5009
8b28087528c1048840189259
122c40080000200149180034
001810410000200000000208
081900300000003528c10088
000000000000000000000000
004000040000000100000080
000001020000002008000050
000000900000000010280009
000000602800020060000021
000000080000000240180030
000000010000000000000000
000000200000000028000000
000000098000000000000800
200400908000000004000000
000008000000020000200000
320032c00040420906280012
002800102405068000109145
062000000000080009101230
011400400000000000001008
000000000000000000008000
001002098428000400000801
200214001008924102083400
98b0384b0801020089200055
22023cc0c890460b362c991d
81288575244136884a1a9a51
0628800c0020200169310634
019c82410000300000905609
081100308120001520011080
000000058448000000000000
000000000000000000000000
008000480002002008200040
001014800000800d14684001
0120044530012600499c02c1
000800000000000041102210
208402400000000000001000
010000200000000520010000
000000000000000000000000
000000000000000000000000
000008000000000000000000
000000800000000100000000
002000100000000000101000
040000000000000000000000
000000000000000000000000
000000000000000000000000
000000010000000000000001
004000000000104000003000
000100010000000000000050
0000348000004209162e4008
8120043420c0028040181041
040800080000000109100020
401010400000000000000000
000000000000001400400000
000000000000000000000000
000000000000000000000000
000000000000000000000040
000000800000000010080000
000004002004000040080020
000000000000000001100000
400000000000000000000000
000000000000000000000000
000000000000000000000000
000000000000000000000000
000000000000000000000000
000000000000000000000000
000000000000000000000000
000000000000000000000000
000000000000000000000000
000000000000000000000404
200000000000000020000000
880000040000000000020008
2000000a0000000000400000
200040083000000202008080
124000008941002400000940
000004002000000080000080
000000000000400820000000
000000000000000000000004
200000000000000000000000
800000040000000000000000
002000000002000000000000
000000083000000000010000
000000008000400400000040
000000000000000080000000
000000000000000020000000
000000000000000000000004
020000001100000224080000
182014060220010000180445
630800001000000110004080
0810204c200081041212c082
1cc000201861711216800100
140000022000000060008800
000000000000402000001004
200000000400002028403406
2022030692180882a0090220
9d01e026120029188010000a
eb0b8a2ec20483a110400802
ed18602c2b003b879353ae88
32c40862bd4b6a6e80a72554
12110e00a1091028c74083c5
008400300c2a400c20200b84
880403a01440082099452046
21024042820040a440200220
900048648008040000003088
897282ae8220008880400001
041a1c48a104100210133084
104118001910400e00248140
1201500400111000c0a0410b
140c00000400408820000104
800001800000000100402806
000000000000000000000020
000000000220000800000000
000000002000000000000000
001000000000000002008080
000000000800000000000000
000000000000000000000000
000000000002000000000000
000000000000000000000400
2000000202120080a0000000
98002024000421100010000a
a200802a8000060010400000
ac10402c200020821210ac80
3240090089414a6400040510
1001040020000000c3000580
000000000020400820000000
800000800040010000002044
a00400000000000000000000
980000040000000000000008
000000040000000000000000
00000008a000000000110001
104000800000400400088040
000100000000000040048102
000000100000000024000000
000000800000000000000004
000000000000000000000000
000000000000000000000000
000000000000000000000000
000000000000000000000000
000000000000000000000000
000000000000000000000000
000000000000000000000000
000000000000000000000000
000400000000000000000000
000000000000008000000000
000009000001000000000000
000040001084000000000002
000000000000000000000080
000004000000080000010000
000000400000c00004000000
000100800000000000000000
000000000000000000040000
000000000000008000040000
003101000000000000000042
000040001004000021000004
000000000000000000000080
200000100100010000104000
000000002000400004000000
001000002080000000000000
100020000000000000010000
000000800002000000000040
800000000000000100100000
010000401000210000001000
000000000000020000000000
000010000000200001000008
000000000100004012040100
000200000000000040000000
440202040100800002014010
00000005084820c100488100
420238140408000108108040
d460852050c4225c0300d286
08c687c922024085d84824d1
07029406108028144500d024
884a3841c048c12050000240
010040a00080058810028024
041800008101280402500210
000800062002010130002140
90b053ba002000000881084a
2000e10890cc2c5705026b16
00820548030c0442e0c001c1
25422d34c0f0115241380004
39020941240ac16050100010
001800002080040813240420
000000000002000000010000
000000000000000000000000
000000010000000000000000
000000001000000000020000
000240080000000000200000
000010000008000002040000
002000000000000010040000
000400000000000000000000
008000000040000000000010
000000000000000000000000
000010110000000000000008
000008000080001008420000
0080040802000000000c0001
000000000000080020040000
000408000000480000800000
000000800084240800000020
088000020010000000003001
000000000000000001100001
083810010000000000800400
01100c0088b0001009000024
809005c8010000400020000a
201000000800000000350404
080000000000480008800000
000004000010050001108040
000400008000000000000000
000000000000000000000000
000000000080000000800000
000000000000000000000000
008000020000000000000000
000000000000000000000000
000000000400001000040000
000000000000000000000000
100000008000004000000000
000000000000000000000000
000000000000000000800000
000000000000000604000000
000000020040000080000000
000108000200020000000000
000000200000000000040000
000000100000000000000000
000080008000000000000000
000000000000000000000000
000002000000001000800000
000000001004000200000000
000000000040000000000000
000100000021000000000000
000000000000000000100000
000201000080000000000000
1014200084010c4000008000
804000000080000404080000
0504a06004a0021000c00002
484808050000a10d88010730
00480a828050030241880026
a0010800261d02020aa08010
11120180041008928608a882
438200a24228010204000804
1004020780010c4001058340
80100422008401440c0a0000
020ca1000480809140d0006a
001a88020200894f00001434
01086a4a40e20422838102c5
80002c15230882403c0080bb
161921a544b240c0250ca801
038083330060326214410300
009008870000004002010300
0000008200040046080a0000
120443400084089840c80041
404a00021214298604000505
000908008411000080100280
80012895823102c018048098
03100185500880422514a904
529081008121024280440542
000000000000000000010000
000000000400000000000000
000000000080000000800002
000000000001000000000000
000802020050000000000000
000000000000000000000000
000008000010800210000080
000000000088000200000000
100000000000004000000000
000000008001000000080000
000000000080000000800002
000000000000000400000010
000000420040000080010000
000200300280024000000000
800000840000000200000000
010001000080000200000000
000000000000004000000000
000000000000000000080000
000000002000000000800000
000000000000000000000000
000000000040000080000080
000000010000004020000000
000000800000004000100800
000001000080000200000402
000000000000000000000000
000000000000000000000000
000000000000000000200000
008000000000000000000000
002010000000000000000000
000000000000000000100000
000000000000000000000000
000000000000000000000000
000000000000000000000800
000000000000000000000000
020008000000000000200000
000002000000000000000000
042010000000000000000000
000000000000000000000000
000000000000020000000000
000000000020000000000000
100800000000000000010100
000000000000000000000000
000009000000000000000000
000004001008000000000000
000000000000000000000000
000000000001000000000000
000000000000000000000000
000000000000000000000000
08a014008240009400008000
511431020100008002000840
200902200010020080249080
06d2085008a001062a4a2084
842494805104b11201220052
024200802800026000120208
102010020210080008880106
02100200002610824824a000
08209400aa4080082a084800
5d242901018008900a002344
bbc0b05502181600c02c9000
72f02e50ac7180170b68400c
e42c9502dd28af81024426f2
0640002838408224001a16a8
100422d016322a002830000c
02100608cc2c1000c500e080
001010120000000084004520
420430200800001000000402
b002050510018c00c0100000
08020400084082180085000a
810500014622341008280850
000100089040010400030e40
000000500002240020000e00
808206008000000040003082
000010000000000000000000
000000000000000000000000
000000000000000000000000
000000000000100000000000
000000000000000000000000
000000000000000000000000
000000000000000000000000
000000000000000000000000
000000000000000002000000
000000000000000000000000
020000000000000000000000
000002000000000000000000
202200000000000000000000
000000000000000000002000
000000000000020000000000
000000000020000000000000
000000000000000000000100
000000000008000000000000
000101000000000000000000
000000000000000000400000
000000000002000000080000
000000000000010000000000
000000000000000000000000
000000000000000000000000
000000000000000000000000
000000008000000000000000
000000000000000000000000
000000000000000000000000
002000000020000000000000
000000000000020000000000
800000000000000000000000
000000000000000000000000
000400000000000000000000
000000008000000000000000
000000000000000000000000
000000000000000000000000
002000000000000000000000
000000000000000000000800
800000000000000010000000
000000000000000000000000
000400000000000000000000
000000000000000000000000
000000000000000000000000
000000000000400000000000
000000000000000080000000
000000000000000000000040
800000000000000010000000
000000400000000000000000
2380280c0008900000001008
012209c0048020000002000a
024490000490a2800124c024
8000008207008a0c34089000
25a48b080326038000002000
040990000060020004001680
00002048401040800380200c
040002010524800180220180
1380a8480408000000044904
02002806048064c8081ee008
4043480080800c80403d0521
2004e4920780804c04490000
423d074b006220800000e2c8
8409040010504a0480001c44
0024625c040420020380090e
800004c00025834100000080
150c5c400440004044140c42
80400084802000402008400a
e01f8de000e28ca108290000
000401100508c1002c4b0000
282d034204000001803822cc
a0030820c018cd008060acc8
802802042416810411004802
00008cc80021034000008081
000000000000000000000000
000000000000000800000000
000000000000000000000000
000000000000000000000000
000000000000000000000008
000000000000000000000000
000000080000000000000000
000000000000000000000000
000000000000000000000000
000000000000000000000000
000000000000000000000000
800000000000000000000000
000000000000000000000000
000000000000000000000000
000000000000000000000000
000000000000000000000000
100000000000000000000000
000000000000000000000000
000000000000000000000000
000000000000000000000000
000000000000000080000000
000000000000000000000040
800000000000000000000000
000000400000000000000000
100000000000000000000000
000000008000000000000000
000000000000000000000000
000000000000000000000000
000000000010000000002000
000000000000000000000000
000000000000000000000000
000000000100000000000000
000000000000000000000000
000000008000000000000000
000020000000000000000000
000000000000000000008000
000000000002008080002000
000080000000000008010000
000000000000400010000000
000000000000000000000000
000000000000000000000000
100000000000000000000000
000000000000000000000000
000000001000000004000100
008000000800000000000000
000000000000000000200000
000000000000000010000000
000000000080000000000000
011002248000000000000000
128180000100000200000400
00180181000a000000020102
080004500330862440420862
0002012256f3038106200452
0000001200000080200a0468
042000420000044000004201
c00810480012010010230000
022200040003006000000020
100300000c00000101100450
00088160a08a0008c8030140
812061c01b22820c00028020
89060164509f08808d2a0401
2002842010080120251e100d
850000018000404013204444
20da000cc002000010050000
100204000020800000002000
000089480000000002000080
026020010004042080820080
0b6101819928042041288000
a08200000000896888200102
402081802200000002045420
810000020000050010040420
00840020a080008000008168
000000000000000000000000
000000000000000000000000
000000000000000000020000
000000000000040000000800
000200000000000000000412
000000000000000000000420
000000000000000000000000
000000000002000000000000
004000000000000004000000
000200000000000000000000
000004010000000000000000
00000c001040400008200000
000200001002000004000000
080000000000000100002000
000000000000000010000000
000000000000000000000000
002000000000000000000400
000000000000000200000000
000004200400200080100080
000004005020020000000120
809000800000000000048002
00008100000000000c202800
000400010000000010200000
042020008090008000000000
008000000000000000000000
000000000000000000000000
000000000000000000040000
000100001080080400000000
000400020002000000000000
000000000000001000020008
000000000000000000000000
000000080004000000000000
0c00000c0000000000000000
100200100000000020210802
000080002000000820020040
002108800c20400c01020000
012600021212010002110000
000000000000000030020408
001100000001080008008008
000004000002000200020000
000000000000000000000000
000000000000000000000800
000800000000000000020000
000128000800000000020000
200601000002000000000000
000000000000000020000400
000000000000080000008000
000000000000000000000000
048088008008822448108100
280c01450000000000800002
091a002480100a8408800030
702000840491000110001820
00004908210449c601040000
00000000400020d243004c80
806000002422801214148845
828200002000020080094800
00002802a006020140110a42
20090952642840a400808003
41200880100010002d951202
8252d044a0982a80a1136189
20025c2510094144302b0634
000200080018002680000104
80200000a400500414046000
000400080000006500084804
80020800a002808504000ac2
0448001360080084c010a4a0
0014014a50009000050d1000
801224e08082a00009030104
040d00244849400121ca0000
000000000030006040800048
004000000422000000104800
000000c82001002408082b04
000008008000020400000100
000001000000080000000080
000000208000000000000000
002002800010000004000000
000000000000090000000800
000000000000001282000000
000000000400000010140000
000000002000000080080800
000020028000000040000002
000000400000000400008200
41010088000000000d800000
064010008000000000104100
210042000008480000000010
000000000010008200000000
000000000400400000040000
000000080000000002080840
000000008000000000008046
040001000000000400008000
001081420000000004000000
000000400000800040000104
200800000000000101000002
000000000000000000000048
000000000400400000000800
008000000000000000000000
000000000000000000000000
000000000000000000000000
000000000000000000000000
000000000000000000000000
000000000000000000000000
000000000000000000000004
000000000000000000000000
000000002000000000000000
000000000000000000000000
000000000000000000000000
020020000000000000000000
000010000000002000001000
010008001000010000000000
000010000000000000000004
000000000000000000000000
000000002000000000000000
000000000000000000000000
000000000000000000000000
000000000000000000000000
000000000000000040000000
000000000000000000000000
400000000000000000000000
000000000000000010000000
000000000000000000000000
000000000001000009000000
100000000000000080001000
004820000080000041000000
802010000000102400030900
410100001008010000000010
000000000000200000020404
000000000020180000000000
000004006100000000000000
0100124c0000100003002003
130203000480000002285000
2a08a3270026041c01800900
222e16000323126400021400
45b90ba2573a0340060cb090
000210100208220512aa3c1e
06008000022c120001230244
0002040c6100090010020100
410010044000000043000100
120204008c08008180000800
4a082b0b0020000010000002
a2027c204100500540421402
00000102530206000c480081
400014120800298802380218
0c4800010000680051000000
000800000000000012000600
000000000000000000000000
000000000000000000000000
000000000000000001000000
000000000000000000020000
010000000000010000000400
000000000000000000000800
000000000000000000000000
000000000000000000000000
000000000002000000000000
500001000000000000000000
000080201000080001000000
000000000000002400022000
018008805000010004002400
000200000000000010000800
000000000000000000000000
100008000100000050000100
100000000002000000000000
400000000000000000000000
000000000000000000000000
000000004000000000022000
00000c005000000000000000
000200000000000000000000
000000000000000010000000
000000000000040040000000
000000000000000000000000
000000000000020000000000
000000000000000000800000
000000000100000180000000
000000000000000000000000
000000000000000000000000
800008000000400000000000
000000000080000000000000
100000000000004000000000
000000008000000000000000
200002000000000000800000
000000000000000200000010
000000000000000080000000
000000004000010000000002
000008000000000020000000
000000000080000000000000
101000000000004000000000
000000008000000000000000
000002000000000000800000
000000000000000000000000
008000020000000080000000
000000000004000000000202
000000000000000010040080
004001020000002000000000
0010a0018100000002040000
080404020200028040080000
001401400292861088800040
004000890110a007c1210400
00881a23100100a211000204
2001ec8060100c6482008010
9a2089040000690187110142
c00040020889020288600068
1304a000c100004010000710
084020820000000100084008
600c127002a1809080c80206
4070924a8000a086c1002030
08098203904110a2830001ab
91050320600407805a1291b0
05004ac400004304a4150087
8000021204802122ad4c0020
1404a0020000004800040344
18000080a010420602084000
5000535403e8889004d80242
4c1280022a108c8e00000001
08c80242804130802100020a
93000028220402e089028082
010002c41400c19014a608df
03a2120200000002c8440441
100000000000000000040000
000000000000000000000000
000000000000001000800100
000000000000000080000000
000001000000000000000004
000000044000004000000000
800000000000200001000001
000000000081000000000000
100000004000004000000001
000000000000000000040000
000002000000000000c00002
001000000000000000000000
208000400040000080000000
000000004000000000000000
000000000000000000000000
000000122000000004000000
100000000000004000000000
000000000000000000040000
000000000000000100800000
000400000002000000000000
008000400000000080000000
010004000000000001000000
000000000000000000000000
000000020000010000000000
000000000010000000000200
004000800000000000000000
400400280000000000000000
000000000084000000140010
2000060008000c4800002000
000004000000002840004004
000000010000000000000000
400040040000010008000008
000000000000000000000000
824000000000000000000000
402080200000000000000000
000400008080000000100904
000100000204400080020000
000004000000002080100004
800000000000000000000000
000000000000000002040000
000000000080000000000000
000000000000000000000000
000000000000000000000000
000000008008000000800000
000000010200000000000000
008000000000000000004000
800000000000000000000000
000040000001000800000000
042600020000000201040a01
000000001004000100000c00
049a00050020800420900102
56287c00c8360000090c0201
2070080c206c0d594110a200
000e20010092400940254424
02168000103a5008002d0a01
4330c4e400600108200c4949
048010200000004000000022
800800000000000000000000
67aa28240204040020800902
41000400803410c020105184
34b85500a39ae94402222200
04004120408228240310a006
010002000008040000900880
401404800060700802c6bcc0
000060000000000001000202
800808000000000000000000
041404060000014048000102
505000018008240100227100
00410103c298095040002000
004000000000200042004701
800000000030000020084501
008400000001010802808800
000000000000000000000000
000000000000000000000000
000000000000000020000000
000000000000000000000000
200000000000000000000000
000000000000000000000000
000000000000000000000001
000000000000000000000000
000000000000000000000000
000000000000000000000000
000000000000000000000000
000000000000000000000000
000000000000000002000000
000000000000000000000000
000000000000000000000080
000000002000000000000000
000000000000000000000200
000000000000000000000000
000000000000000000000000
000000000000000000000000
000000000000000000000000
000000000000000000000000
000000000000000000000000
000000000000000000000000
000000000000100442000001
000000000000000000000000
020000000000000400000000
000000040000000004000000
000002000000080000000000
000000000000000000000000
000000000000000000000000
000000000000000000401000
010120000000800002101011
080000200000000000000020
020010620002000808000000
000200000002200000010500
080100208000080410004180
000105400400100080400000
200040010000000001000100
008000000014000080100000
010000000000800000000000
000000000000000000000020
020000000000000000000000
000000000010000500000000
000000020001000000004000
000100000000000000100000
200000002400200001002000
008000400010000180000000
000041002200500041400801
800089000026034000009000
030000000200004402004082
800000350000210240000000
040002000043884000840000
040004801548080080000040
00060001040800200602010c
000400440700000000209006
41522338104a3008839c1276
ca188929765700c2200010a0
030230624e07604eac86108b
4c1202150c90a9c490092539
38c11042c1e1a86615844084
404125c01558505090500293
318e408805306680474b0158
1056280c8c140a48d21c812d
030226010042800105141082
600000000814840800002420
030002020600800684001004
001020000090020720110000
20011250804000000000c000
204100000d02400002500080
20848004001024000b4aa304
020280480000080180450021
000000000000000000000000
000000000000000000000000
000000000000000000000000
000000000000000000000000
000000000000000000000000
000000000000000000000000
000000000000000000000000
000000000000000000000000
000000000000000000000000
000000000000000000000000
020000000000000000000000
000200000400000000000000
280000400000000000000080
000004000000000000000000
000000000000000000000100
000000000000000000000000
000000000000000000000000
000000000000000000000000
020000000000000000000000
001000000000000000000000
000000000000000000000000
000000000000000000000000
800000000000000000000000
000000000000000000000000
010000000000000000000000
000000000000200000000000
000000000000000000800000
000000000100000000000000
008000000000000000002000
000000400000000000000000
000000000000000000000000
000000000080000010000000
000000000000000000000000
000000000000000000000000
000000200000000000800000
000000000000000000000800
008000001000000004008000
000000000000000020000000
040000000000000001000000
000000000080000010400000
000000000000000000000000
000000000000010000000000
000000000000000000800000
000000000000000000001000
000020000000000004000000
000000000000000000000000
240000000000000000000000
000000100000000010000000
000000000000000000000000
004220000000200000000400
000000000000000000800000
00000c001080000000080000
009001414042200000110000
000000400000000000000000
001120000000040010800000
000000000080004040402000
000080002090080000010020
004100000000000000000400
000100202200040400800001
00000c100800060420b00c00
000000031049030004208400
00500c000001002022090c04
0420800000000c1000000204
200000040000020110400020
020004040648580000000000
500201000410011000000000
000100000201001400802000
2000001003001e2402485910
010020007026110006181310
02485800000000002001010c
041800100000200001000c04
200141140000200050000100
000000000100000000000000
000000000000000000000000
000000200000000000820000
000000000000000001080000
802200810010000000000000
010000000000000020000400
000000000000000008000000
000000000002000100000000
002000140100008080000020
100000000000000000000000
800000202000040080000000
000010000820001001000080
800200000000000004000000
010000000000002020000400
040000000000000008000014
200000000002000010000000
000000000000000000400000
000000000000000000000000
004000000000000400000000
000000000000001001000000
800000000000000004000000
000000000040000020000004
040000000000000000000004
000000140000000010000000
000000000000000000000000
000000000000004000040000
020000000000000000000000
000000801000000040000000
000000000000101000000144
000000000000080020000000
010000000000000000000000
000000000000000000001000
000000000000000000000000
000000000000000000000000
000000000000000000000000
000000002000000040000000
000000000000000000000000
000000010000000000000004
000000000000000000000000
000000000000000000000000
000000000000000000000000
000000000000000000000000
000000000000000000000000
000000000000000000000000
000000000000000000000000
000000000000000000000000
000000000000000000000000
000000000000000000000000
0c0048440400000002004100
8005002000100000000600c0
060840210000040400048001
022020e80c08c020c0100014
0004ec851004405840920168
080000111400022120000524
006002a0020080c88e000020
204202a40004ec0002044042
000000800421000000000020
000200002012022020002040
080040220002040400040001
278330c02580002424200004
001454614202400070924228
24200001000002621002232c
e01200200300208080800080
0002038c0014400010020000
000000000001000000000000
800400000000000000000000
00004000000000a400000000
000004000000400000000001
000008410006000020000000
000200010000040000020004
200000000000000000104000
002000040000000000040000
000000000000000002000000
000000000000000000000000
020000000000000020000000
000000000000000000000000
200000000000001000000000
000000000000000000000020
000000000000000000040000
000000202000000000000000
000000000000000000000000
000000000000000000000000
000000000000000000000000
000000000000000000000000
000000000000000000000000
000000000000000000000000
000000000000000000000000
000000800000000000000000
000000000000000000000000
000000000000000000000000
000000000000000000000000
000000000000000000000000
000000000000000000000000
000000010000000000000000
000000000000000000000000
000000000000000000000000
000000000000000002000000
000000000000000000000000
100000000000000000000000
000000000000400000000000
000000000000000001000000
000000000000000000000000
000000000000000000000000
000000000000000000000000
000100000000000000000040
000000000000200000000000
000000000000000000100000
040000000000400200000100
000040000000000000002000
000001000000000080000000
000000000000000000000000
000000000000000000000000
000000000000000000000040
000000000000000000000000
000000000000000020000000
000000000000000200000100
200000000000000080000000
100000000000002000000000
000000000000000000000000
000000800000000000000000
100042044000004002000240
000000109000000000000000
180000290002000020000000
001210021010414b48300101
00c01002094140b001002280
001101001c00600282080098
000000404402001004001142
820200800000020008000000
000143040800010504044141
800000400002200004005004
0004c0638081000800000010
04001044080347029c186101
0043581199c8c06010422244
800001000004000083030000
000004404428001004009103
868284800800021008800000
100041802808010004040043
000040001000000084004104
000480014401008000000010
441009000800400208085303
1042201200004420904a0100
800021600104202082018000
00000400440000004401c003
008080800100021000000000
000000004000000002000001
400000100000000000000000
100000210000000000080200
000200000000010040020000
010000004000001000002000
000000001002000100010010
010000000402000000000102
020000002000000000000000
00010004040200000c040041
000001000000200000000000
080040210004000000000000
040080000001410044020000
000348081000002000022246
4000010008000001a0040000
000000020400000000201100
020400002000000010000000
000000000000000084011040
020080000000000000000800
840010206000008008000000
0400100010004000000000a0
000000880400000080000000
000000808000000020000000
000000000000080000000000
000000002200000080000000
000000000000000000008000
000000000000000000000000
000000000008008000000000
040000800000800004000000
000000000000000000000000
040000000000000000000000
000000000400800000000000
800000000000000000010280
000400408400001002000110
800000000000000000108001
020001000000000008000200
041082000200204004000000
080002020000008000000080
200001000000011000000000
000004000004c00000000000
000000800004004000000000
000400000000000000000000
000000800000000004000000
000000000000000020000000
000000000044000200000000
000000000000008000000000
000000000000000000008000
000000000004200000400000
000000000000004000000080
0488a80c0020021496039010
040008922238031104300085
160400002109040009848a20
040880140c08a34407030400
49888a200000808201288900
27098400d208125200008198
030842081410900040090e08
8492010403140232860106b0
1afeb048e5222a3d030dd310
aa004822787863b54410b09b
12084322eb992400288e0243
c518c24e04c031c0e50004c0
28011ac13010810681242bcc
212107e0130895520001821a
639462a94018f28404680888
e88524c6810f4088a0404510
009430072060004a210d4318
100048a0103002010400a044
0408c20ec1000b4028100063
401240180010010660000460
004008c10800008411004081
200082281009870c00008808
21a820204010ecc408604202
888094000812409404604a00
000080000000000002000000
000000000000000000000001
000000000000000000000200
000000000000800004000000
000000000000000000000000
000000000000000000000000
000000000000000000000000
000000000000000000000200
000000000400000000040010
000000000000000400100001
000000000000000028000200
0010c0000000200024020000
280002000000008000000000
200200000008001000000000
800000000000c00000000000
002000000085000000000000
000000000000000000000300
000000800000000004000000
000000000000000020000000
000000000010000000000000
000000000000008000000000
000000000000000000000000
010000000000000000000000
000000000000000000000000
0300000000c0010000000010
102200010401001000000000
000020120000000000040000
000200004100000050c10800
010408201022000084090218
008000800004001024001000
040000180002000000000000
000000000004002010020000
400000004008000000040010
100000006000003400402000
100048102000000000640001
204240084000000245998008
00040800000e0000c1000230
400880000000001020000000
440000010002800000000000
000000000004000000020000
000000000000000000200000
080200000000020000000000
000000000000000000000001
000000000000000000000002
200008000800000000100000
000000000000000000000000
000000000008000000000000
000000002000000000000000
0400091000020500c80c1082
500900000253021680200402
894559d2608008440d040004
a742050a18c20a5044058244
034c2f24c21a1890090b0032
4401800001005a9030001044
0c4101108200851040000040
204800041d04002040080092
00100812657a090608145150
c20d0010e320021083406408
58545b586004094020000481
a3526c8ac1320b126773888e
08040641c20d4112e1600b1d
cb3389cf08101118b1910546
606001108f58240000102810
200101040000012142080080
000000004003040000000000
422808280004028004001000
580102000000008004040081
832210000100000001111c40
200c00014268000000040004
040001010004020000100020
000000000018000200040c00
400000200004008102000000
000001000000000000000000
100000000400001000000000
000010002000000001040000
000000000000000000000000
010600001002000000080010
000000000000000020000000
800000100000000000000000
200000000004000010000000
000000004000000000000010
100000000000000000000000
000008102000000000040001
20020c004000000040020000
000600011002001000080200
000000000000001020100000
000000002000000000000000
200000000004000000000000
000000000000080000000000
000000000000000000000000
000000000000000000000000
000000000000000000000000
000000010000000000000000
000008000000002000000000
000000000000000200000000
000000000000000100000000
000000000000000000000000
000000000000000000040000
000000000000000000000000
000400000000000000000000
000000000000000000400000
000000000000000000000000
004000000004000000040000
000000000000000000000000
000000000000000000000000
000000000000000000000000
000000000000000000000000
004000800800000000000000
200000000000000004000000
000000000000002000000008
000008000000000000040000
000000000000000000000000
000000000400000000040000
000000000000000000000000
000000000000000000000000
000000000000000004000000
000000000000000000000000
000000000000000000000000
000000000000000000000000
000000000000000000000000
5000000cc008000404005811
38a000005048408004081002
821050370500020002000208
01395002d480446cc0884504
00089b08a9ad00210248e184
c0c841009200902905804428
024880400000500088200004
044045000000000808a40428
000200200440030800589016
8012999000180a200a441220
1459e0170a118e6009001050
385552a4a922480004770d00
09081996c15a091941391a2b
004801000408602908830c68
412c0a010062380608000000
420001000108800e40400850
0802200125000000020b0000
001290001040008001000c00
008820000424180000020000
00000c400808040104160000
000009200011040000203880
000045000000400804801800
002408002102820a08400480
0000880000000006b0110040
000000000000000000000000
000000000000000000000000
000000000000000000000000
000000000000000000000000
000000000000000000400000
000000000000000000000000
000000000000000000000000
000000000000000000000000
000000000000000000000000
000000000000000000000000
000000000000000000000000
004000000000000000000000
000000000000000000000800
000000000000000000000000
000000000000000000000000
000000000000000000000000
000000000000000000000000
000000000000000000000000
000000000000000000000000
000000000000000000000000
000000000000000000000000
000000000000000000000000
000000000000000000000000
000000000000000000000000
000000000004000000000000
000000000000000000000000
080000000000100000000000
000000000000000000040000
000002008040100000000800
000000000000000000101000
000000000000000000000000
000000002000000080000000
000000060000000000000000
000000000000000008000000
000080200000000000000000
280082000080400410080004
0001000000c2100040000040
0000000000000000a8000002
000000000002400000000100
000080000001000000800000
000000000000000000000100
000000000000000000000000
000000000000000000000000
000000000000000400000000
000100001000000000000000
000000000000000000000000
000000000002000000000004
000000000000000000000000
000000030004051004004082
44028001104c208040120001
0ad0e6870000408000030122
80b231c82c94000110260150
2403120a034b11050c588162
040000200000008289444020
012800008000010120001001
804040004408130041080021
009008038100001000004202
200080403124208000002040
42b3e0270020008009010162
0000ab88cc9440c3d32c2310
38036dbc06ee1f457450a122
510005208180d84be8246100
400000000002600028004040
0980408000012080850a9201
000020020000000100000000
000400000110000000002008
40060188020001a00c081100
401288c00010010225002504
0003450024c0021048200200
0500000080004188f134d210
00204000001a004200900802
10c4003004104000000000a0
000000000000000000004000
000000000002000000000000
000080020000000000000000
000000000100000000180000
800000000042000000000000
000000000000000200000080
000000000000000001000000
000000000000020000000800
000000020000000000000000
000000000000000000008000
000180002200000000000000
000180000120001000080004
2001080000e2020000000002
000000000400000020001000
000000000000400000000000
000080000001000000000000
000000000000000000000000
000000000000000000000000
004000200000000000000000
800200000000000000020000
000100000000000008000000
000000000000000000000000
000000000000000000000000
000000000000000000000000
000000000000000000000000
000000000000000000000000
080000000000000000000000
000000001000002000000000
000000000000000000000000
000000000000000008000000
000000000000000000000000
000000000000000000000000
000000000000000000000000
000000000000000000000000
000000000000000000000000
004000000000002000000000
000000000000000000000002
000000000000000000000000
000000000000000000000000
000000000000000000000000
000000000000000000000000
000000000000000000000000
000000000000000000000000
000000000000000000000000
000000000000000000000002
000000000000000000000000
000000000000000000000000
000000000000000000000000
100048000408000000041100
100000000000800008000000
20041a10248000000000103d
084040001100022c42044080
606051251144004801400000
000000000004521224001a60
018000000000000050000020
040018202000010c10800040
0008020c0070000020085000
918000400800208000400000
a04088030500024021001000
80c010910189426c02704020
614c512051d4b0400c96a0b0
02e000000000100215201e64
089202000040008400a00248
00013c404104000011900042
00a082000000080000020000
010000440800000000003000
004208020000020001024800
000010840128820042c00900
010200004840104408022080
008008000000000110022000
000000080000100401004200
000020000100480000400006
000000000000000000000000
000000000000000000000000
000001000000000000000000
000400000000002000000000
000000000000000000000000
000000000000000000000000
000000000000000000000000
000000000000000000000000
000000000000000000000000
000000000000000000000000
000000000000000020000000
004000000000002000000000
204000000000000000000000
000000000000000000000000
000000000000000000000000
000000000000000000000000
000000000000000000000000
000000000000000000000000
000000000000000000000000
000000000000000000000000
200000000000000000000000
000000000000000000000000
000000000000000000000000
000000000000000000000000
000000000000000000000000
000000000000000000000000
000020000000000000000002
000000000000000000000000
000000000000000000000000
000000000000000000000000
000000000000000000000000
000000000000000000000000
000000000000000000002800
040000000000010000000000
000028000000000000040002
000800000080008000000000
000400000401020200000101
000001000000080080000000
000000000200000000000000
000000000004000000000000
008020000000000000000000
000000000000000000000040
000000000000008000040040
000000400090000000000100
000000400000000000000000
000000000000000000000000
200000000000000000100000
000000000004000000000000
00a828054000100002002002
0400041200020108ac080402
900020404000400001000202
840a860420e0010242011440
800080000c002a1000220005
000014000000220044004010
00000000000a0404a0082800
000400004000000188000018
809ab8450443f29a02902802
840204329102012da0104f02
121468418001819000858200
a4484f2504804d8208435092
000403418403260680220185
448304089008480b94400090
013888052608000400802800
000500044004020100020512
a08242804100110900840020
84010ce00184a188d0108870
0004002040010002020a2245
4c00ca1024d22b8307030509
0015704504200c80118480c4
001960404020088180004802
212080b90a00231004900902
000100100004200000020514
000000000000000000000000
000000000000000000000000
000020000000000000000002
000000000000000000000000
000000000000000000000000
000000000001000000000000
000000000000000000000000
000000000000000000000000
000020000000000000012000
040000000000010100000000
000020000000008020000040
000800000080008000011002
000000008401000000000081
000000000000000080000000
000000000200000000000000
000000000004000000020000
000000000000000000840000
000000000100000000000000
008000000000000020000040
000040000080008000000101
000000400400000000000000
000000000000000000000000
200000000200000000000000
000000000000000000000000
100000000400000000000000
000020008000000000000000
000000800000000000000000
000000001000000000000000
000000000000000080000000
000000020000000000000000
800000000004000010000000
000000000000000000000000
1000000c0080000002000000
100080008000000000000000
000000000000000000000000
000000001004000800800000
004002001000200080002000
008100000002000000000200
800000000000000010000000
000002000000000010000000
144000000000000000000201
000000008010000000000000
010400210000028008000010
04102041104c080800000000
020002108400000082100000
000000000000000000000b80
800000000000000010000800
008002000000000000000000
000080040000000000000002
000000108000002004000000
000000000001100000400000
001800941380008400000004
000200001200080280200020
000004000005400000008108
802800000008008012000000
000000080000600202400000
100080040000000000400000
18058802c424200000001000
084000000008984000004088
000410001064900400901020
0042018013000802c5242c28
0080000000018000112cb640
842000000008108012201000
802c4a40000041081a000002
18c000000940041000015102
04018880c029018088000c01
410d70820000018808040200
1900ac01584cc8004040a004
0804020206004084c4082800
24408000010b518200020b00
c10000008800080018c04800
904001000004400020000000
100000000000000008100000
400000008000000000000000
080000210044000220020000
000000801820008800000004
000200080000410080000002
000000000804000000040100
800000000000008000000000
000400000002000040000000
9820000d0000000000000001
100889008400200200100080
408000190004000000020080
000000809824000809000126
a0020188110c894084242002
00000000000000310005a402
800020000400000018000100
0004004020020080108a0000
108400000000000000051281
010080008000200001100401
011d10890000028008020802
095024809084480020000100
08020208910c004480042004
00000000010910a000100080
800000000400040010000900
000000002000020080000800
000000000000000000000000
000200000000000000000000
000000000000000000000000
000000000000000000000000
000000000002000000000000
000000000000000000000000
000000000000000000000000
000000000000000000000000
000000000000000000000000
000000002000000002000000
000000000001000000000040
200210001000000004000000
000400000002209020000000
000000000000000020000000
000000000000000000000000
000000000004000000000000
000000000000000000000000
000000000000200000000000
000000000000000000000000
000000001000000000000000
000000000000000020000000
000000000000000000000000
000000000000000000000000
000000002000000000000000
008000000004040000041000
018280020008000504020001
000000000208000000040060
000010000080026000600000
030600308002180021480001
000100000008000008080000
000c00200010000000820002
000801000214000000820080
0008006a2464a52c1e1c2110
b0070052a10892212002a882
be1d615e0091060409040070
a00a7c9a51100e782d756b8c
63068870f70730d2e1099265
b465210c810863102c170d07
a10882202002e89200000508
4817181041040a60100720f2
201802042461802400001112
a40200802000000420022000
381c511a0091060908050045
a022640a0018024064618a64
8001005424025080a9000201
2001002c1800231800510d04
208002012000600802000100
0261100480040045000200c0
000000000000000000000000
010200000000000000000001
000000000000000020000000
000010000000000000000000
200400000002080020002010
000000000000000000000000
000000000000000000000000
000000000004000000000000
000000000000000000000000
000200402000021002000000
820560202000000020040440
220054880000044024400000
20040440000720d0a1000240
240100000000000020000102
200000100200400000000000
000001000000000000020040
000000000400000000000000
000200000000000002000000
000000200000000000040040
020044000000000004000000
000400440002004020000200
000100000000000000000104
000002000200400800000000
000000002004004400020080
000000000000010000000000
000000000400000000101000
000080000000008000000020
000010000000000000000100
000400009010000000000000
004000000000200000000000
000000000000000000000000
000000000004000010000000
0000000000c0010000000000
000000000400000000001000
0000a0008000400010800020
000012002000020804c00100
210408000012000004000000
04c000000000200020000000
040000000000120000000000
000000000004080000020000
000000000000000000000001
000000000000000000000000
000000200000000000800000
800000000000000400000000
008000000000100200000040
040000000000000020000000
000000008000000000000000
000000000080000000000000
280000000108000000009000
800000001000800000008000
0040b0020020008001000000
000010000000800000080100
010400209000008010010012
040800000040a00000100004
100100000000000000808800
000000800000000000000000
2100020200e0010002003180
004200100009401280000000
020020208001000000800801
084022002080021a0ce20100
d0c20d090432800010290212
04a001120008200020050000
10290010000020000080021a
200500000002090900030000
000040020000000000400061
000000000000008080100000
002400a12000000000d00000
800004000880021342420001
10d4014900008002282000c0
0012000010a009a020040200
200080008000100000800202
a04000001080010000000802
030000000040000000008000
801000000000000008001000
000080000000200000800000
080010000100000000400120
80000100c010090004040000
000001200000800000000000
040400000800000000020000
000000000000000010100000
0300080000c000000a000020
80121000040a000008000000
0800a0008000000011860000
0a0018000120080010c01100
118608004012110004080002
00c000000000800020001000
040000000800080000200000
004000000006080000120000
402800000000800000000000
000000020000800000000000
000000000000000080800000
890000004020000001020000
808601000010800200000000
400200000000000000000000
000000008000000140000000
000000000080010000000002
000000040000000000000000
000000000000000000000000
000000000000000000200000
000000001400000000001000
000440010000000000000000
008000000000000000100000
000000000000000010000000
000000000004000000000000
040040080000100100000801
000000800000000100000020
000088010000000000240000
100000a01501c00800001001
042448010000010000020001
000010010000000181000008
000000010000002010004008
000200000424400000000000
040000000000000000000000
000000000000020000000000
000000000000000000000040
000000000500400020000000
000000000000000000000000
200000000000000000000040
000000000000000001004002
000000400000000000000000
05000a000000000000080000
000000000000100000001000
000001400000000000200000
0000144011000a0800220000
842041000201080080000000
040000000000000000000000
800000000000100010000000
000000008000010000000000
1502c20c0000020000080801
000000000400208000001020
120088600000000024240040
908017a21581c21800020200
042c40401a823b00841020a0
0002002010000801b0000401
800000028000140031000208
000000012424020012001000
150280002000020000000820
020000000400000000000000
000008a40000000020200040
900000001500c08010060200
042000400280014000000000
040000000008000000080040
000000000000000031000200
000000400020100000000020
000000000000000000000000
000000000000000000000000
000000000000000000200000
000000000000000000000000
000000000000000000000000
000000000000000000000000
000000000000000000000000
000000000000000000000000
000000000040020000000801
000000000000200100000000
000008000000000000200000
100000200100400000480201
002040000000200000022001
004000000000080000000000
000000010000000000004000
000000000020000000000000
000000000040000000000000
000000000000000000000000
000000000000000000000000
000000000100400020400000
000000000000000000022000
204000000000000000000000
000000000000000000000000
000000000000000000000000
100000040080000000020000
000000080000000000000000
000080800000000000000000
000104801000020400800000
000000000000082980000000
000000000200000000001020
800000000000000010000000
000000000000000000000008
000000040090008020000000
002004000002000020018000
020080000208100000000000
00012e0053000024008000b0
c000081010a40b3983239000
000000202200000018285820
000000002001080010000800
000800000000000000a00420
210000000000000000004000
000000000000000004000008
000480800000000000000000
0001080010000c0401000000
200000000080000000000000
000000002000000200880000
000000000000000000000800
000000000000004000000000
040012040102000000020090
100400000000000806080002
000082c000100000200a0042
8320040803842a2401404400
601a0252500408118909200f
010000002002408008a03031
000020084220001200050204
407000080002000110440000
27010c3c0121242020072002
122307810404026002080900
033de6c30bb0504020080266
1b2c6e0a231d163db2200238
e5fa0bf653360b4307a2b276
11200001220ba2029aaa3079
07208178463050002305ae0e
421202224408012410e30501
050510064000802120065040
03000400080004004200200a
b254f0a0020001c040110100
8208240015041c4465008005
8018040093008a808d008812
04010420240220c222001209
080001108602008000000800
000080080008030001000090
000400000000000000000000
000000000000000080000000
000000000000000000000100
820000000004000000000000
000000000000000000000000
000000000000000000000002
000000000000000000000000
000000000000000000000000
000400000100000000010000
000000008000000082000000
000000000000000000000000
820000001204001200000000
000000000000010080000000
000000000000000000001002
000000000000000000000000
000000000000000000000000
000000000000000000000000
000000000000000000000000
000000000000000000000000
000000000000000000000020
000000000000000000000000
000000000000000000000000
000000000000000000000000
000000000000000000000000
000000000000000000000000
000000000000000000000000
000000000000000000000000
008000000000000000000000
000000000000000000000000
000000000000000000000000
000000000000000000000000
000000000000000000000000
000000000000000000000000
000000000000000080000000
000000000000000000000000
000000000000000000000000
000010000000000000000000
000000000000000000000000
000000000000000000000000
000000000000000000000000
000000000000000000000000
000000000000000020000000
000000000000000000000000
200200000000000000000000
000800000000000000000000
000000000000000000000000
000000000000000000000000
000000000000000000000000
1000084d00c0240180000090
800300200040010290501000
911482de10c00308000c4280
9bc01008b800a04880422402
90280488c20b8ac400286808
00c020009010829610129328
8020000884a852189a10880c
1400012100001000110888c0
020008400f00000152020082
100240010040010080102200
700c10880011008800080000
81f03180811902020f140605
0c081020c11e481f48424098
1b100001300412882013100a
80600000818a200810108203
0202010218081220800c0080
028008031600200002021000
120200400000420024128108
107611200040010000880020
0502900822a1420236020100
000c50208402824000404212
1a8120009040120200000902
00204000840a40022089c003
020889000008500280020040
002010000000080000000004
000000400004000000400800
020800242080000000000000
09c001008820161002000800
00100488020040c000240010
010008000008000020000000
000000100100000092600000
2000000000000000100000c0
002010000100080000000000
100000000000000008000000
000200010080048000020000
090000000820100008000820
201a04888008000000000002
010008200108000020000408
000000000100000008208000
000080000002000080000000
082000100000000008000000
000000400800000020000000
000400012080048000020000
080000000820100001020020
000200100000000008000002
010000200008020020000400
000000000000000000200000
200080000000000080000000
000000000000000000020000
000008000000000000000000
480208000000000000080002
209000021000000040100800
0008b0000004080000000000
000000000000000002000000
000000000000000000000000
000000000000000000000800
000000000000004000020060
100088000000020000000000
480200000000000000080000
018000020801000404080800
020890001000880100000000
000000000000000007000000
000000000002000000000000
020000000008100000000000
000000000000000000000000
000080400000000000000000
000000200000000000000000
000000000800008102020000
000000000000904000000000
000000000000002004000004
000000000000000000000000
000000000000000000000000
020091019b40011010030000
880c0a0c002400180990060b
c8bb210424040088080a9113
28b906031929f10cc95a4902
841ebe00c50caa0d10823008
110224000832000026240896
000402004000060004090011
a28000002900900010088a21
8043310292520855880302e8
da0c88050006210100800008
4a9b6b444744020002099c10
68b3472e81b552ec0b5a09c5
873ddd80b33a7a47880f3043
82032000610100218f0bd79a
008700904002000000000401
06c800014200940004080920
090401031820c44284840220
430080400000000800000008
cc5328280602000415920000
251002a0082008c55a2ee006
8117541dd68390e30025c209
0200010864a80028264004c4
000400104000800002000100
004000480110000048038160
100000000000000000060000
000008000000000000000000
480200000000000200000000
801000001000000040400000
000010000008000000000000
000000000000000002000002
000400000000000000000000
000000002000000000080000
000040000000000000000000
000080010000000000000000
000000004000000000000000
008000008021000000080800
000c14000000080100012000
000000000000000002000002
000400000000000000000000
020000000000000000000000
000400000000000004000000
000000000000000000000000
000000000000000000000000
000002000000000000020000
000000000000014000000000
000000000000000000000000
000400000000000000000000
000000000100000000000100
000000000000000000000000
000000000000000400000000
000000000000000000000040
000000001000000000000000
000000000000001000000000
000000000000000000000000
000000000000000400000000
000000000000000000000000
000420000004000000040000
000000100000080400000000
002080000000000000000000
000090201000000000000200
000002000000001001000a04
000000100000400000000000
010000000000001000010000
000000000000000000000000
000000000000020000040000
000002000000000000008000
000000000000080000200000
000000000080200020000000
000000000000000001000000
000100000000000000000000
000000040000001000002000
000000000000000000000000
008289028409000002006100
840000900000000002100012
5386c9008110000000040242
a810c1941082090107181644
00114502040190d041202240
180004181004001000008690
012008040418c01600002100
008000800000020008000006
0d082301a50f211442a54139
0400081200020d0500088010
d3a5c831a100800010000850
8880c6b23d032407d518361d
0490eb86934a205ed1620b05
5002011883244044719c8039
192002440018e01860010840
000400280480030884418012
4018080008001350000400ca
888802848380000400108112
000041c20782884800144116
1002c0122080288422081118
009d4810890a000681400a00
a0051118100441408002c00c
010000040c00405024012080
800000880400015404430080
000020000000000000004000
000000000000080000000000
000040000080800000000000
000080000000000000000000
000000000400000000000800
000000000000400000008000
000000000000000000000000
000000000000000000000000
000020000000000000040001
000000000000080400000000
002040000000000000000000
000080100000200004001000
00000300000a001001040a04
000000000004404000000000
010000040008801000000000
000000000000020000000000
000000000000004000040000
000000000080000000000000
000001400000000000000000
000000100000000020001000
000000000000000001000000
000110000200404000000000
000000040000001000002000
000000000000000000000000
000000000400000010000000
000200802000020000000000
000000000000020000000000
000000000000000200000000
000000000002000020000020
000000000008000000000000
200000000000000000000002
000200000000000000020000
000000000000000000000002
000010002000000000000000
002000020100000000000000
000002000800080004000000
020081001102208020002004
040000000020000221002000
200000000000000000000000
200020000210000001022000
000000008000000000000000
000200002000000000000000
080040800000000000000000
000001000004280004400000
000080802902000020020200
040000000000000220008200
200000000000000000002000
004000000010020020020000
00281000000000000a000020
000000c00000000000000800
080411000400000008900108
00100800202010020012c000
021001004002000121600008
000240000800010000009000
010000000010080008201000
000000000230010040000000
006010010000000000000220
404001000010000100000000
19e04c042004800403008110
0200128008a018a10500c800
23338511621089c10010021d
0000c020002204056824a004
003002010000800000200880
2204200403108110401088c0
006480008442000000004000
620800000000801100000000
1070c0850200000000000080
000000800060422044421000
052000946a0091c000108211
044200000840410542046000
001402110400080000200000
0244e00804800080420281c0
080000000040000000000000
000000000000000002000000
000000200000000000000000
020008001800000000000000
000000000002000020000000
000000000000000000000000
000000000000000000000000
000000000000000000020000
080000000040000000000000
000000000000000000000000
000000000000000000000000
020000001800000004400000
000280000000000000000000
000000000000000000000400
000000000200000000000000
000000000000000000000000
000000000000000000000000
000000000000000000000000
000000000000000000000080
000000001100000004400000
000000800100000000000200
000000000000000000000000
000000000000000000000000
000000000004008000000000
100000000000000000000800
000000200000000000000000
000008080000000000000000
800001001000000000001012
000140000000100000420000
000010020000080000000000
004000000000000000000000
000000000000000000080000
100000000000000000000840
0000000c0400008080000000
002000680000000000000000
c00000000004000100041002
0800040000000404000290c1
00040048000000008000c000
000000818008000000000000
800000000000000000000000
000000001000000000000000
000000800000008000000000
001401000000000000000000
801000001010000000000000
000000080000400000024020
000000000000010000000000
000000000000400000000100
000000000000000000010000
018420010840001310252821
000011a09a28818400200c82
8211092c000000890008008a
d000850e9080a80048021512
30005e0000411e7291420001
0000100200110904b000008a
01620001000881a020000102
d200408000007400100802ea
3046c80008401100031a5859
120012ad802484d430401600
44309268024088008909606a
c01004048dc00110d10e7402
09395138425dcd0e09029037
800e555a08309068014ee0d2
080600131010040000080101
410a05c01518190802140508
0012208120002810080a0149
840002a40004048021002044
485441c403108100080060e2
8410500024340300261a2846
012141400000c80200224230
060008504012018084184146
00234604f010a00200200700
0408841500a1004180008060
100020008000000000000000
000000000000000000000000
000000000000000000020000
800000001000000000001012
200264000000100000420800
000010020001000080000000
004008000000002000000000
000004000000240000000000
100000000000002000000140
000000000000008000000000
000000480000040008000000
8000010014800001000c3022
0800040800001000400200c1
000210400030000880000400
000000008000004000000000
000004002000010000000008
000000004000000000000001
000000000000000000000000
041000810100000000800000
801000400000000002000001
008000000001000000004020
000000000010000000000010
400000200800000000000080
000010100000000000010000
000000000000000000000000
000000000000200000000000
000000000000000000000002
000000000000000000000000
000000020000000000000000
000000080000000000000000
000020000000000000000000
000000000000000000000000
000000000000100800000000
000000004000200000010000
000000000000000000200002
000100000000080000000408
00a100020064000048000000
000000080000000000000000
000020000001000010000000
000000000000000200040000
000000000000000000000000
000000000000200000000000
000000000000000000000000
000000000000000040000000
000000020000000000002000
000000000000000000000000
000020000000000010000000
000000000000000000000000
020082008000480404000200
000100000808009000002002
040080080600000100004001
000020100380882000024008
0020400102490800080c0010
000040080000460006000001
000420800000200003081008
040000002100400002480800
060488004400150004004000
002100802808000000002002
2c0482400242000100a80003
040020100694880040434508
00a1014300650000280a0000
004044080c44020002020000
080400000000209007100011
22408000018100c100450400
024080000080010010004000
000000800000200000000000
000010202002000800c80820
400000000444920a00000500
08c001224040200001002000
840001000008020000008000
810020000000001000800208
2000000001c0010100402000
000000000000000000000200
000000000000200000000000
000000000000000000000000
000000000000000000000000
000000000002000000000000
000000080000000000000000
000000000000000000000000
000000002000000000000000
000000000000000008000000
000000000000200000000000
080000000002000020200002
000000000000000000000000
000100020040000000002000
000000080000000000000000
000000000000000000000000
000000000000000000400000
000000000000000000000000
000000000000200000000000
000000000000000000000000
000000000004000000000000
000000000000000000002000
000000000000000000000000
000020000000000000000000
000000000000000000000000
000800400400000002000000
000000000000000000020000
020000000000000840000000
000a00000000004004000000
400000000000000000000000
040000000000000000000008
000000000008000000000000
000000084000000000000000
001000400400000012000040
100000801400000000020000
120000400002004840000000
000200000010004004010000
400000000000008014000000
040000001000000000020048
00000000000a000002000840
000200484000000000000080
001400400400000004000010
000000000000000000020000
020000000000004800000000
000200000010004004010000
000002000000000000000000
040000000000010000000048
00000400000a000000000840
000200484000000000000000
0248a0409400000012000040
900000a010240004001a0002
120000400022004840000000
041a00000240894004001080
410010008000000210040004
040000000000000000020048
00000000000a000802000840
000200484100000400000000
025108428401002096081042
901080a81e6480100102c482
520011620222406940084920
041ac4820251a94096010028
40001120800080a05e240004
040180081200110004628049
00040004041a000002500840
044280494000100000008080
001940404c010000160c0000
001290801200000000020082
168041c2022200c880084106
04020002001130400c010000
400840040040900052200004
2401100010020182026280c8
1a200400044a080002000840
026200484000200080008090
000000400400000002000000
000000000000000000000000
020000000000000840000000
000000000000004004000000
400000000000000000000000
040000000000000000020008
000000000000000000000000
000200084000000000000000
005000400400000002000000
000000001400000000020000
120000000022000840000000
000200000000004004000000
400008000000000004000000
040000001200000000020008
000000000002000002000040
000200084000000000000000
000000000400000000000000
000000000000000000000000
000040000020008000080300
000200000010000004000000
000002000000000000000000
040000000000010000000008
000004000002000000000000
000000080000020000000000
100400000200140000000000
200208008200800000008004
424200040180000020008000
000000381105481000001000
2000600008c0021180000004
0000b0040000000000010002
800000800400001014040000
000000002000820000802000
100408428000100000004000
000000008400400020000000
620009140000000001004002
c15205201005080810045006
038008010085261189900050
102010440000081040084108
888000000000000810040000
040002002100800000840400
100c88000405000401000082
0a0000008000402c00000000
000002100000c10000204000
001014001014000208000114
00204000024000008220007c
001001440000000000008110
820000000000500010140000
000000000000420000020000
100400000200000004004000
000008018108000200000000
220104000400000000000080
001010001104000000080000
208000802282211181088000
000000000200000000000400
800080000000100010000000
020000002000000000002000
100480000000010004000800
000000008100000200000000
2a002d100000000020080080
803018801524810060041500
22b0170901a2231089082100
000004400a04000008848700
8804000000201005140c0101
008000402280000000020000
110ca0000000000001000100
000040008000000600000000
080080200400a00040200040
043014001104000048000001
042000000200400080240016
000000000800000800049000
800c00020000100115040004
000008402420000000000000
100410000000000000000000
000000008200000000000000
000000000000000000000000
001000001005000001001000
200000000280020080000000
000010000000000000000000
800000000000000010000000
000000002000000000002000
100410000000005000000000
000000008000000000100000
000008800004010080000000
001000001005000000041400
800003000080020080002100
000014400000088040040100
880000000010000010000000
000480002000010000800000
120400000000000001000004
000000400300000680100000
000000040000810002220000
001000001004200008020000
002000400200800082000014
000200000000000000008000
000000008000000110000000
000000002000020000008000
000000000000000000000000
000000000000000000000000
000000000000000000000000
000000000000000000000000
000000000000000000000000
000000000000000000000000
000000000000000000000000
000000000000000000000000
000000000000000000000000
000000000000000000000000
000000000000000000000000
002000000800000000000000
000000000000000000000000
000000000000000020000000
000000000000000000000000
000000000000000000000000
000000000400000000000000
000000000000000080000000
000001000000000020000000
000004004000000000000000
200000000000000000000000
000000000000000000000800
000000008000000000000000
000000000000000000000000
00000c2800200820000a0012
046100020110000008002040
8002361e0090001801040000
0a3874804182a428042d4aa6
01152a01b6fe0d4b70548424
07880041000282100a909cb2
201c000008006000400a100c
000a00100084002204ee0040
04400120c4400520000e4402
04040800011000000002aa00
94047d040402800001080008
20eb3c418ca0ba0440304080
803b41120475c09b02794014
450100000084500226048428
104000000000a908000a8a00
420405004000100400410080
04480800d688000007044292
512040180204000040202080
c48353c02822100100100405
44082785e448023a7ecc435b
443649aee6684bde403c0140
44c840021064c9004aa49c02
001c03401000000e48402108
400048424001012c88298018
000000000000000000000000
000000000000000000000000
000200000000000000000000
000000000000000000000000
000000000200000000000000
000000000000000000000000
000000000000000000001000
000000000000000002000000
000000000000000000000000
000000000000000000000000
000000000000000000000000
000000000000000000000000
000000000000000000010000
010000000000000000000000
000000000400000000000000
000000000000000000000000
000000000000000000000000
000000000000000000040000
000001000000000000000000
000400000000000044000000
000000000000000000000000
000000000000000000000800
000000000000000000000000
000000000000000000000000
000408000000000020000000
000000000000000080000040
201001000000000000000000
800802400000000000000000
000008000508000800200018
000000000000000040024008
002000000000000000000000
000000000000000000000000
000008000000000000000000
000000000000000000000040
001000000000000000000000
000000000800008001800000
000000000100000000000010
008000000000000004000800
000000000000000000000000
000000000000000000000000
000000000000000000000000
000000000000000000000000
000000000000000000000000
800000000000020000000000
000000000000000000000000
000000000000000000000800
000000000000400000000000
000000000000000000000000
81848854020000053d941182
050c000a078060d98a0010c0
a894311243928748018a8010
8a0222460180885102201004
490a8898070c920884604558
0000000460101100698a5748
142400008202004021001000
20020108000a800000508008
42100a110440800228494010
004002880100003000021102
3851009104020b652488884c
822334824b1422d600424403
268bac1d35c1104a40020018
004104022041000225020923
0000000c0000000800042000
00c00060060008090a400001
022080000041000000050000
081080480000008882000400
080501540002048022880800
840204168b20828060400503
268804080ac1c04a80020008
000005000001000440020c58
00000000800200000024c300
40000040040000000a018008
000004400000000020040001
010000000000000880000040
001000020000000000080000
800000480000040002000400
000808000300000004200018
000000000000000000020000
000000008000000000000000
000000000000000000000000
000400000040000020000000
000000000000000000000000
201000010000020000000000
000200000000008200020001
2000800800c0000000000010
000200000000000004000020
000000000000000800000000
000000000000000000000000
000000000000000000010000
000000000000000000000000
000500000000000020000000
000000000000020000000000
000000000280010000000000
000000000000000000000000
000000000000000000040000
000000000000000000000000
004088020000000000000000
000000000000000000002000
000000000000010000000000
000b00000000000200000000
200000000001000000000000
000000000000000000000002
000000000000400000000080
000000000000000000000000
000000000000000000000000
000000000000000000004000
000000000000000000000000
000200000000008020000000
000000000000000000000000
000000001000000000000000
000000000000000000000000
000000000000004000000000
000000000000000000000000
000000000000000000000000
000000000000000000000000
000000000000000000000000
000000000080000000000000
000000000000000000000000
000000000000000000000000
000000002000000000000000
8842c94bb5108c9cc03c2071
200182e26006210561007744
e03e182519528b842405300a
0c12fadcce536807731c3859
20212a4b820b8ef1318681d0
67518cc6418c19164891c122
d1808045840a6009880009a4
0400111008051207100620b0
01101803ac11180004046000
a00800800800020024006240
c02001020000102204081902
2412225248110899601b1d02
00c80a401508a0100a8286e0
24810d480000410000900810
b3a40084042270c860c00488
000000840000124014048000
011011010801304ac0822008
000000800080000004020104
40b2074402004000040b0002
12100216c410298822063341
82491100000486c045c00840
18000150100000444180c950
11040000040040080000000a
0340001010c01240000080a0
000000020000000000000000
000000000000010000002000
800808000000000000000000
000600000000000000000000
000000400000000000040140
000000000000000000000000
000004000008000000000000
000000000000000200000000
000001002000000000000000
000000000000000000004000
000000000000000000000000
800200000000008020000000
000000000000000082000400
000000000000000000000000
020000008000000000000000
000000000000000000000000
000000000000000000000000
000000000000000000000000
000000000000000000800000
000000000000000000000000
008000000000000000000000
000000000001000000000000
000000000000000000000000
000000002000000000000000
100000000400000000000010
008000000000010010001000
104002000008000000040004
100010001c00000006000001
000480050080008840000000
020000000000020000080000
000000000000000010000000
000800000004000100800000
108000000420000000402008
000000a010008000220000c0
104420a02000000028000001
204000c01484c02002200905
28000421000200a090828040
022001001040202020200000
800000002200008014800000
008002000000000110000080
100800000000000010002000
000000801000000000000000
000020000000000000000000
000000c01488000000000100
000000200000000010800000
840000000000200000080000
100000000000000000000000
000800000000000000000000
1b80880c2220200100014004
1000004a1040a11000000082
010800200000800080008480
000004c01e80800802702001
8882cc819881806e91c0a900
022000000108002240280c04
0080a000000000041e808008
400000008000848010018048
1a84820412200a8505604062
0011806011028100010020c9
0528406040204620281ac5a8
05002dc1be86c60932300be5
a81ecca0d817c068b9d3a840
12220bad11e80860c0304660
99838840050224801e801208
40800620081485a0d085c040
128080000200080000400060
000180001004800000002040
08a400200000480008000541
05012cc0bc80900032000101
08400d818445800018838240
024000000800002000005a00
3c8180000c0024c01c800200
000008000000050000050000
000000000000000000000000
000000000000201000000000
024000000000000000000000
000000001000100002000000
000004000000000000002000
000000000000000000000000
000020000000000010000000
000000000000000000000000
100000000000000000400020
0000800080002040020000c0
024008200006002008000408
000000c01480002012020021
080004200000802090812040
020000001000082040240020
808000400000008014800000
000400000000042010000000
000000000000080000000000
000000000000000000000000
000000000000000000000400
000000401080000022000000
000004000000000010800000
000000000000000000000000
000000000000040000000000
000000000000040000000000
100000000000000000000020
000000000000000000040000
000000000000000000200000
000000001000000000000000
000000000000000000000000
000000000000000000000000
000000000004000000000000
000000000000000000000000
000000000000002000000000
000000000000000000040000
000000000000000000000000
000000000000000000000000
000000000000000000000000
000000000000000000000000
000000000000000000000000
000000000000000000000000
000000000000000000008000
008000000000040000000000
000000000000000000000000
000000000000000000000000
000000000080000000000400
000000000000000000000000
000000000000000000000000
000000000000000000000000
1004a2000004003200000020
200260200020020080000480
100200200012200004200000
001000901004800200000011
080002000041088410000400
008000000008000080000080
000000004000000000040100
002000000000000000000104
8801a2000100002a00058020
022250a100020a0280048400
100408200002008004200080
0010c0100005a11800000060
0c0002008001182001800400
04800000000a5000a1000080
00100000c821000000040008
002040000402400000020184
004802000340081020000020
500800000080460200000000
280400a00002008104001080
000000900000b00001000000
080000014000082003000400
000000011804000081000000
a00000004002000006040002
000000000400000000000000
410004100300082000090020
000041008024000881000400
000000000804000008224c80
000004040000000000000020
000200008200010000040000
040008000008000000200001
000420004000000000200000
002404000480000002000100
c90006200b2220a000018020
424883008864800ac0000400
000104002c0454228c204080
002000044264200001000020
200000000200810000840400
042220000008040002000001
0200000242200c0000241000
022400008002010042000100
400082200152282000010120
024883008040800200000000
000006010800040000000908
000000000200000001008020
000000000200010002000000
004200000001000102040080
020000004000000000250000
002400808000000042000100
0040a1010000100200000000
840002088000000000100004
000000000000009000000000
020000000000000104001001
000000000000002001001000
000000000000000000000010
000001000000000204000000
000000100000000000000080
801400002041000024020800
000110080000050000120000
00000000c000010008012002
040800000000010000000000
200000008081000000001004
200004000000000000000000
000000000008000010000000
004000100000000200000000
100400802004001000010080
000840010000404000100000
000000004000010210010022
040000000000008000000000
000000000100040000000000
800000480000000000000000
000002000000000010040000
000000000080000000000000
10c0a18392089422d1154c11
800126cc2041a00501102306
800001098080448008102005
0a1800062c00100125201435
100c00088001222601d61144
2921025003000108008000f2
0900a1010500541204400909
00910012000001121002302a
d4013883f147956465872dc7
904d280801a00d24859a0282
101e1142a2a681528c1d2742
06a8001005010109210104b0
2c28920380c520208a40510c
a10514704a0c1140f3f2d002
8a5801020108400010010809
80f001500000240200000808
